{
  "version": "1.0",
  "truncation": {
    "direction": "Right",
    "max_length": 256,
    "strategy": "LongestFirst",
    "stride": 0
  },
  "padding": {
    "strategy": {
      "Fixed": 256
    },
    "direction": "Right",
    "pad_to_multiple_of": null,
    "pad_id": 2,
    "pad_type_id": 0,
    "pad_token": "<|endoftext|>"
  },
  "added_tokens": [
    {
      "id": 0,
      "content": "<|unused0|>",
      "single_word": false,
      "lstrip": false,
      "rstrip": false,
      "normalized": false,
      "special": true
    },
    {
      "id": 1,
      "content": "<|unused1|>",
      "single_word": false,
      "lstrip": false,
      "rstrip": false,
      "normalized": false,
      "special": true
    },
    {
      "id": 2,
      "content": "<|endoftext|>",
      "single_word": false,
      "lstrip": false,
      "rstrip": false,
      "normalized": false,
      "special": true
    },
    {
      "id": 3,
      "content": "<|sep|>",
      "single_word": false,
      "lstrip": false,
      "rstrip": false,
      "normalized": false,
      "special": true
    },
    {
      "id": 30000,
      "content": "<|acc|>",
      "single_word": false,
      "lstrip": false,
      "rstrip": false,
      "normalized": false,
      "special": true
    },
    {
      "id": 30001,
      "content": "<|tel|>",
      "single_word": false,
      "lstrip": false,
      "rstrip": false,
      "normalized": false,
      "special": true
    },
    {
      "id": 30002,
      "content": "<|rrn|>",
      "single_word": false,
      "lstrip": false,
      "rstrip": false,
      "normalized": false,
      "special": true
    }
  ],
  "normalizer": null,
  "pre_tokenizer": {
    "type": "Sequence",
    "pretokenizers": [
      {
        "type": "Split",
        "pattern": {
          "String": "ೱ"
        },
        "behavior": "Removed",
        "invert": false
      },
      {
        "type": "ByteLevel",
        "add_prefix_space": false,
        "trim_offsets": true,
        "use_regex": true
      }
    ]
  },
  "post_processor": {
    "type": "ByteLevel",
    "add_prefix_space": true,
    "trim_offsets": false,
    "use_regex": true
  },
  "decoder": {
    "type": "ByteLevel",
    "add_prefix_space": true,
    "trim_offsets": true,
    "use_regex": true
  },
  "model": {
    "type": "BPE",
    "dropout": null,
    "unk_token": null,
    "continuing_subword_prefix": null,
    "end_of_word_suffix": null,
    "fuse_unk": false,
    "byte_fallback": false,
    "ignore_merges": false,
    "vocab": {
      "<|unused0|>": 0,
      "<|unused1|>": 1,
      "<|endoftext|>": 2,
      "<|sep|>": 3,
      "!": 4,
      "\"": 5,
      "#": 6,
      "$": 7,
      "%": 8,
      "&": 9,
      "'": 10,
      "(": 11,
      ")": 12,
      "*": 13,
      "+": 14,
      ",": 15,
      "-": 16,
      ".": 17,
      "/": 18,
      "0": 19,
      "1": 20,
      "2": 21,
      "3": 22,
      "4": 23,
      "5": 24,
      "6": 25,
      "7": 26,
      "8": 27,
      "9": 28,
      ":": 29,
      ";": 30,
      "<": 31,
      "=": 32,
      ">": 33,
      "?": 34,
      "@": 35,
      "A": 36,
      "B": 37,
      "C": 38,
      "D": 39,
      "E": 40,
      "F": 41,
      "G": 42,
      "H": 43,
      "I": 44,
      "J": 45,
      "K": 46,
      "L": 47,
      "M": 48,
      "N": 49,
      "O": 50,
      "P": 51,
      "Q": 52,
      "R": 53,
      "S": 54,
      "T": 55,
      "U": 56,
      "V": 57,
      "W": 58,
      "X": 59,
      "Y": 60,
      "Z": 61,
      "[": 62,
      "\\": 63,
      "]": 64,
      "^": 65,
      "_": 66,
      "`": 67,
      "a": 68,
      "b": 69,
      "c": 70,
      "d": 71,
      "e": 72,
      "f": 73,
      "g": 74,
      "h": 75,
      "i": 76,
      "j": 77,
      "k": 78,
      "l": 79,
      "m": 80,
      "n": 81,
      "o": 82,
      "p": 83,
      "q": 84,
      "r": 85,
      "s": 86,
      "t": 87,
      "u": 88,
      "v": 89,
      "w": 90,
      "x": 91,
      "y": 92,
      "z": 93,
      "{": 94,
      "|": 95,
      "}": 96,
      "~": 97,
      "¡": 98,
      "¢": 99,
      "£": 100,
      "¤": 101,
      "¥": 102,
      "¦": 103,
      "§": 104,
      "¨": 105,
      "©": 106,
      "ª": 107,
      "«": 108,
      "¬": 109,
      "®": 110,
      "¯": 111,
      "°": 112,
      "±": 113,
      "²": 114,
      "³": 115,
      "´": 116,
      "µ": 117,
      "¶": 118,
      "·": 119,
      "¸": 120,
      "¹": 121,
      "º": 122,
      "»": 123,
      "¼": 124,
      "½": 125,
      "¾": 126,
      "¿": 127,
      "À": 128,
      "Á": 129,
      "Â": 130,
      "Ã": 131,
      "Ä": 132,
      "Å": 133,
      "Æ": 134,
      "Ç": 135,
      "È": 136,
      "É": 137,
      "Ê": 138,
      "Ë": 139,
      "Ì": 140,
      "Í": 141,
      "Î": 142,
      "Ï": 143,
      "Ð": 144,
      "Ñ": 145,
      "Ò": 146,
      "Ó": 147,
      "Ô": 148,
      "Õ": 149,
      "Ö": 150,
      "×": 151,
      "Ø": 152,
      "Ù": 153,
      "Ú": 154,
      "Û": 155,
      "Ü": 156,
      "Ý": 157,
      "Þ": 158,
      "ß": 159,
      "à": 160,
      "á": 161,
      "â": 162,
      "ã": 163,
      "ä": 164,
      "å": 165,
      "æ": 166,
      "ç": 167,
      "è": 168,
      "é": 169,
      "ê": 170,
      "ë": 171,
      "ì": 172,
      "í": 173,
      "î": 174,
      "ï": 175,
      "ð": 176,
      "ñ": 177,
      "ò": 178,
      "ó": 179,
      "ô": 180,
      "õ": 181,
      "ö": 182,
      "÷": 183,
      "ø": 184,
      "ù": 185,
      "ú": 186,
      "û": 187,
      "ü": 188,
      "ý": 189,
      "þ": 190,
      "ÿ": 191,
      "Ā": 192,
      "ā": 193,
      "Ă": 194,
      "ă": 195,
      "Ą": 196,
      "ą": 197,
      "Ć": 198,
      "ć": 199,
      "Ĉ": 200,
      "ĉ": 201,
      "Ċ": 202,
      "ċ": 203,
      "Č": 204,
      "č": 205,
      "Ď": 206,
      "ď": 207,
      "Đ": 208,
      "đ": 209,
      "Ē": 210,
      "ē": 211,
      "Ĕ": 212,
      "ĕ": 213,
      "Ė": 214,
      "ė": 215,
      "Ę": 216,
      "ę": 217,
      "Ě": 218,
      "ě": 219,
      "Ĝ": 220,
      "ĝ": 221,
      "Ğ": 222,
      "ğ": 223,
      "Ġ": 224,
      "ġ": 225,
      "Ģ": 226,
      "ģ": 227,
      "Ĥ": 228,
      "ĥ": 229,
      "Ħ": 230,
      "ħ": 231,
      "Ĩ": 232,
      "ĩ": 233,
      "Ī": 234,
      "ī": 235,
      "Ĭ": 236,
      "ĭ": 237,
      "Į": 238,
      "į": 239,
      "İ": 240,
      "ı": 241,
      "Ĳ": 242,
      "ĳ": 243,
      "Ĵ": 244,
      "ĵ": 245,
      "Ķ": 246,
      "ķ": 247,
      "ĸ": 248,
      "Ĺ": 249,
      "ĺ": 250,
      "Ļ": 251,
      "ļ": 252,
      "Ľ": 253,
      "ľ": 254,
      "Ŀ": 255,
      "ŀ": 256,
      "Ł": 257,
      "ł": 258,
      "Ń": 259,
      "Ġì": 260,
      "Ġë": 261,
      "ìĿ": 262,
      "Ġê": 263,
      "íķ": 264,
      "ëĭ": 265,
      "ìĹ": 266,
      "ëĭ¤": 267,
      "ê³": 268,
      "Ġí": 269,
      "ìĿ´": 270,
      "ëĬ": 271,
      "ëĬĶ": 272,
      "ê°": 273,
      "ìĹĲ": 274,
      "ìĦ": 275,
      "ìĿĦ": 276,
      "ìł": 277,
      "ìŀ": 278,
      "ì§": 279,
      "ĠìĿ": 280,
      "ë¡": 281,
      "Ġìŀ": 282,
      "ê³ł": 283,
      "íķĺ": 284,
      "ìĿĺ": 285,
      "ë¡ľ": 286,
      "ë¥": 287,
      "íķľ": 288,
      "ëı": 289,
      "ìľ": 290,
      "ìĭ": 291,
      "¸°": 292,
      "ê°Ģ": 293,
      "Ġìł": 294,
      "ì§Ģ": 295,
      "ìĿĢ": 296,
      "ìķ": 297,
      "ĮĢ": 298,
      "Ĥ¬": 299,
      "âĢ": 300,
      "ë¥¼": 301,
      "ë¦": 302,
      "ê²": 303,
      "ìļ": 304,
      "Ġê°": 305,
      "ìĦľ": 306,
      "ĠìĿ´": 307,
      "Ġìķ": 308,
      "ëıĦ": 309,
      "íķ´": 310,
      "ëĤ": 311,
      "Ġê²": 312,
      "Ġë°": 313,
      "ëĵ": 314,
      "êµ": 315,
      "ê¸°": 316,
      "ìĽ": 317,
      "ë§": 318,
      "ìĸ": 319,
      "Īĺ": 320,
      "Ġë§": 321,
      "Ġì§": 322,
      "ëł": 323,
      "íĸ": 324,
      "ë©": 325,
      "ĠìĹ": 326,
      "ĠìŀĪ": 327,
      "ìľ¼": 328,
      "Ġìĭ": 329,
      "ë¦¬": 330,
      "ë¶": 331,
      "Ġê·": 332,
      "ìĿ¸": 333,
      "ìĬ": 334,
      "ĠìĦ": 335,
      "Ġê³": 336,
      "ëĿ": 337,
      "ĠëĤ": 338,
      "ìľ¼ë¡ľ": 339,
      "ë³": 340,
      "ìŀĲ": 341,
      "Ġìĺ": 342,
      "ë°": 343,
      "ìĭľ": 344,
      "ĥģ": 345,
      "ëĿ¼": 346,
      "ìĤ¬": 347,
      "ìĸ´": 348,
      "ìŀ¥": 349,
      "£¼": 350,
      "ĠëĮĢ": 351,
      "ìĽĲ": 352,
      "Ġê·¸": 353,
      "ë¬": 354,
      "ëĵ¤": 355,
      "Ġëĭ": 356,
      "íĸĪ": 357,
      "ì²": 358,
      "ê³¼": 359,
      "ëĮĢ": 360,
      "Ġì§Ģ": 361,
      "íĻ": 362,
      "ìĹĲìĦľ": 363,
      "ìĺ": 364,
      "ĠìĪĺ": 365,
      "ĠâĢ": 366,
      "Ġë¶": 367,
      "Ġëĵ": 368,
      "ëŁ": 369,
      "Ġêµ": 370,
      "ìłķ": 371,
      "Ġë³": 372,
      "ëŀ": 373,
      "ĠìĤ¬": 374,
      "íĺ": 375,
      "Ġ1": 376,
      "ë¶Ģ": 377,
      "ë©´": 378,
      "ê²Į": 379,
      "ë§Į": 380,
      "Ġìľ": 381,
      "ìĻ": 382,
      "ëħ": 383,
      "ëª": 384,
      "Ġëª": 385,
      "ëį": 386,
      "ìĬ¤": 387,
      "Ġê²ĥ": 388,
      "ëĲ": 389,
      "ĠìłĦ": 390,
      "ìĨ": 391,
      "ëĤĺ": 392,
      "ìĿ¼": 393,
      "Ġíķľ": 394,
      "ļĮ": 395,
      "¹Ħ": 396,
      "ëĭĪ": 397,
      "ìĥģ": 398,
      "ìķĦ": 399,
      "ìłľ": 400,
      "Ġ2": 401,
      "ì¹": 402,
      "´Ģ": 403,
      "Ġê¸°": 404,
      "¡°": 405,
      "Ġëı": 406,
      "ìłģ": 407,
      "Ġìĸ": 408,
      "Ġê°Ģ": 409,
      "ê¸": 410,
      "ĠìķĦ": 411,
      "ë²": 412,
      "¤ĳ": 413,
      "Ġìĭľ": 414,
      "êµŃ": 415,
      "ĥĿ": 416,
      "ìĦ±": 417,
      "Ġíķ": 418,
      "ìĪĺ": 419,
      "ìĹħ": 420,
      "Ġë¬": 421,
      "Ġ<": 422,
      "Ġíķĺ": 423,
      "ì£¼": 424,
      "êµ¬": 425,
      "se": 426,
      "ë¯": 427,
      "ĠíĻ": 428,
      "sep": 429,
      "|>": 430,
      "Ġ<|": 431,
      "Ġìļ": 432,
      "Ġëĵ±": 433,
      "íĻĶ": 434,
      "±°": 435,
      "ë³´": 436,
      "íļĮ": 437,
      "ìłĦ": 438,
      "Ġìłķ": 439,
      "ëħĦ": 440,
      "ìĻĢ": 441,
      "ì°": 442,
      "Ĥ°": 443,
      "ê·": 444,
      "ìļĶ": 445,
      "Ġë³´": 446,
      "Ġíĺ": 447,
      "ĠìĨ": 448,
      "Ĩµ": 449,
      "ìĹĪ": 450,
      "ëıĻ": 451,
      "Ġì°": 452,
      "ë©°": 453,
      "ĠìŀĲ": 454,
      "ê¹": 455,
      "âĢĿ": 456,
      "ĠâĢľ": 457,
      "Ġì£¼": 458,
      "Ġê²½": 459,
      "íĬ": 460,
      "ë¬¸": 461,
      "ĠëĤĺ": 462,
      "ìļ©": 463,
      "ê³Ħ": 464,
      "âĢĻ": 465,
      "ìĤ°": 466,
      "ì¶": 467,
      "Ġì¶": 468,
      "Ġì¤ĳ": 469,
      "íĦ": 470,
      "ĠâĢĺ": 471,
      "Ġê³µ": 472,
      "ì§Ħ": 473,
      "ëªħ": 474,
      "Ġì²": 475,
      "Ġëĭ¤": 476,
      "ĠìĿ¼": 477,
      "ĠìĿ¸": 478,
      "íĥ": 479,
      "Ġìłľ": 480,
      "ì¹ĺ": 481,
      "íķł": 482,
      "ìĨĮ": 483,
      "ĠìľĦ": 484,
      "íĬ¸": 485,
      "ê¹Į": 486,
      "Ġë¶Ģ": 487,
      "ëŁ¬": 488,
      "ìķ¼": 489,
      "Ġ\"": 490,
      "ìĦł": 491,
      "ë¹Ħ": 492,
      "íĦ°": 493,
      "ê°Ħ": 494,
      "00": 495,
      "ëł¤": 496,
      "Ġíĸ": 497,
      "Ġìĥģ": 498,
      "Ġë¯": 499,
      "ìľĦ": 500,
      "Ġìĸ´": 501,
      "Ġë§Ĳ": 502,
      "ĠëĤ´": 503,
      "ê³µ": 504,
      "ĠëĲ": 505,
      "ìĭł": 506,
      "Ġë²": 507,
      "íĸī": 508,
      "ĠêµŃ": 509,
      "ì¡°": 510,
      "ĽĦ": 511,
      "ëĵľ": 512,
      "ë£": 513,
      "Ġ'": 514,
      "ê¸Ī": 515,
      "ëį°": 516,
      "íĮ": 517,
      "±´": 518,
      "ëĭ¹": 519,
      "ìĹ¬": 520,
      "Ġê´Ģ": 521,
      "ê´Ģ": 522,
      "Ġëª¨": 523,
      "Ġ3": 524,
      "Â·": 525,
      "µľ": 526,
      "íŀ": 527,
      "ì²´": 528,
      "ë¬´": 529,
      "íĶ": 530,
      "ëĤľ": 531,
      "ìķĪ": 532,
      "ê°ľ": 533,
      "Ġì¡°": 534,
      "ìļ°": 535,
      "ĠìķĬ": 536,
      "Ġëį": 537,
      "Ġíı": 538,
      "ëĭ¨": 539,
      "Ġìĺ¤": 540,
      "ĠìĦł": 541,
      "ë¯¼": 542,
      "Ġê³ł": 543,
      "ĠìĨĮ": 544,
      "ĳľ": 545,
      "ë§Ī": 546,
      "Ġíķ´": 547,
      "ê±°": 548,
      "íķĻ": 549,
      "ĠìĹĨ": 550,
      "ëĲľ": 551,
      "ìĦ¸": 552,
      "íı": 553,
      "ĠìĿĺ": 554,
      "Ġë§Ī": 555,
      "ĠìĽ": 556,
      "ķĮ": 557,
      "ìŀ¬": 558,
      "ëł¥": 559,
      "Ġìľł": 560,
      "ìĽĶ": 561,
      "ê²½": 562,
      "Ġë¹Ħ": 563,
      "íŀĪ": 564,
      "ĠìĹ¬": 565,
      "ĠìĺĪ": 566,
      "ĠëĦ": 567,
      "ìĹŃ": 568,
      "ìļ´": 569,
      "Ġìµľ": 570,
      "ĳĲ": 571,
      "ĠíĮ": 572,
      "ĠìĹ°": 573,
      "ëĤ´": 574,
      "ìĥĿ": 575,
      "Ġê¸": 576,
      "ìĺģ": 577,
      "Ġê¹": 578,
      "Ġê°ľ": 579,
      "ĠìĻ": 580,
      "Ġìĭł": 581,
      "Ġë§Į": 582,
      "ìĹ°": 583,
      "ì§Ģë§Į": 584,
      "ìĭĿ": 585,
      "ĠëķĮ": 586,
      "ì¡": 587,
      "Ġê±°": 588,
      "Ġëħ": 589,
      "ëĭ¤ëĬĶ": 590,
      "ë¥´": 591,
      "ĠìĬ": 592,
      "ìĭ¤": 593,
      "êµĲ": 594,
      "Ġìļ°": 595,
      "ĠìķĪ": 596,
      "íĨµ": 597,
      "ë¶Ħ": 598,
      "ĠìĦľ": 599,
      "¶Į": 600,
      "Ġë¯¸": 601,
      "ìĪ": 602,
      "ë¯¸": 603,
      "ĠëĶ": 604,
      "ëĲĺ": 605,
      "ëįĺ": 606,
      "ĠíĨµ": 607,
      "ìľł": 608,
      "ì°¨": 609,
      "íĳľ": 610,
      "ĠìĥĿ": 611,
      "Ġë°©": 612,
      "Ġì¹": 613,
      "Ġë°ľ": 614,
      "ĠëıĦ": 615,
      "Ġêµ¬": 616,
      "ê¹Įì§Ģ": 617,
      "Ġì¢": 618,
      "ëŀĺ": 619,
      "ëĦ": 620,
      "ĠíĶ": 621,
      "ìķĺ": 622,
      "ëĭĪëĭ¤": 623,
      "íĴ": 624,
      "ëĿ¼ê³ł": 625,
      "Ġì´": 626,
      "ĠëĨ": 627,
      "¤Ģ": 628,
      "Ġë¬¸": 629,
      "ì¦": 630,
      "Ġê°ķ": 631,
      "Ġì§ĢëĤľ": 632,
      "ë©´ìĦľ": 633,
      "Ġë¬´": 634,
      "ĠìĦ¸": 635,
      "ĠëıĻ": 636,
      "ìĬµ": 637,
      "ìĺ¤": 638,
      "ìĿĮ": 639,
      "ë°ľ": 640,
      "Ġë°Ķ": 641,
      "Ġ4": 642,
      "ĠíĺĦ": 643,
      "íģ": 644,
      "ĠíĬ": 645,
      "ê°ģ": 646,
      "ìĭ¬": 647,
      "Ġ5": 648,
      "ìĸĳ": 649,
      "ë°©": 650,
      "ĠìĤ": 651,
      "ë¬¼": 652,
      "ì¤ĳ": 653,
      "Ġì§Ħ": 654,
      "ì²ľ": 655,
      "ê¶Į": 656,
      "Ġê¹Ģ": 657,
      "ĥĪ": 658,
      "ì¶ľ": 659,
      "íķľëĭ¤": 660,
      "ìĨį": 661,
      "ĠíĸĪ": 662,
      "Ġìĭ¤": 663,
      "ìŀħ": 664,
      "ĠêµĲ": 665,
      "ìĹĲê²Į": 666,
      "íĴĪ": 667,
      "ìłĲ": 668,
      "Ġë¶Ħ": 669,
      "ë¡Ŀ": 670,
      "íĺ¸": 671,
      "ĠìĦ±": 672,
      "ê±´": 673,
      "Ġìĺģ": 674,
      "ĠìĽĲ": 675,
      "íİ": 676,
      "ëª¨": 677,
      "Ġ20": 678,
      "Ġìŀ¥": 679,
      "Ġë¶Ī": 680,
      "ì²Ń": 681,
      "ëĭ¤ê³ł": 682,
      "ëŀĮ": 683,
      "ë¶ĢíĦ°": 684,
      "ê²ł": 685,
      "Ġê²°": 686,
      "ĠíĻķ": 687,
      "Ī¬": 688,
      "íĥĢ": 689,
      "íĹ": 690,
      "Ġíĥ": 691,
      "ëŁ°": 692,
      "Ġìĺ¬": 693,
      "íĽĦ": 694,
      "ìĦ¤": 695,
      "±ħ": 696,
      "Ġëĺ": 697,
      "ê·¸": 698,
      "ìļ¸": 699,
      "ĠëĶ°": 700,
      "Ġëĭ¹": 701,
      "Ġê³Ħ": 702,
      "ìŀĳ": 703,
      "ë¥¸": 704,
      "Ġëĵ¤": 705,
      "Ġìŀ¬": 706,
      "ìĸµ": 707,
      "Ġì¶Ķ": 708,
      "Ġê°Ĳ": 709,
      "ë°ĺ": 710,
      "ì¢": 711,
      "ë²ķ": 712,
      "ìĦĿ": 713,
      "ëĶ": 714,
      "ĠëįĶ": 715,
      "ĠìĬ¤": 716,
      "Ġë°ĺ": 717,
      "ìŀĦ": 718,
      "Ġë°Ľ": 719,
      "ì´": 720,
      "ĠëĺĲ": 721,
      "Ġëħ¸": 722,
      "ì§ģ": 723,
      "ë£Į": 724,
      "ê¸ī": 725,
      "ĠíĽĦ": 726,
      "´ĳ": 727,
      "Ġì°¨": 728,
      "½Ķ": 729,
      "íķ©": 730,
      "ì¤Ģ": 731,
      "ë²Ī": 732,
      "ë¦°": 733,
      "Ġê°Ļ": 734,
      "ê²©": 735,
      "ìĶ": 736,
      "ĠíĬ¹": 737,
      "ëĬ¥": 738,
      "ëł¨": 739,
      "ĠëĲĺ": 740,
      "ĠëĮĢíķľ": 741,
      "ëĭ¬": 742,
      "íħ": 743,
      "Ġíģ": 744,
      "Ġìŀħ": 745,
      "ĠìľĦíķ´": 746,
      "íĺķ": 747,
      "ê°Ĳ": 748,
      "ê·¼": 749,
      "Ġë§İ": 750,
      "Ġë§¤": 751,
      "ëĳĲ": 752,
      "ĠëĤ¨": 753,
      "ì¢ħ": 754,
      "ìĪł": 755,
      "Ĩł": 756,
      "Ġê±´": 757,
      "ĠëĬ": 758,
      "ìĺĢ": 759,
      "Ġ6": 760,
      "Ġìłģ": 761,
      "ë³¸": 762,
      "Ġì¶ľ": 763,
      "íĶĦ": 764,
      "ĠëĪ": 765,
      "ìľ¡": 766,
      "ê»": 767,
      "ĠìķĮ": 768,
      "ĠìķĦëĭĪ": 769,
      "ì²ĺ": 770,
      "ëĤ¨": 771,
      "ëł¹": 772,
      "Ġë¹": 773,
      "Ġì¦": 774,
      "ĠìĦ¤": 775,
      "ĠíļĮ": 776,
      "Ġë©": 777,
      "ĠìłĢ": 778,
      "ìķ½": 779,
      "Ġëĭ¨": 780,
      "ì¸": 781,
      "ĠíķĻ": 782,
      "ëĿ¼ëĬĶ": 783,
      "íĥľ": 784,
      "ĠìĹ´": 785,
      "Ġíİ": 786,
      "íı¬": 787,
      "Ġëĭ¬": 788,
      "íļ": 789,
      "ĠìĤ¬ëŀĮ": 790,
      "íģ¬": 791,
      "ëłĪ": 792,
      "ĠëĦ¤": 793,
      "ëĵł": 794,
      "íĺĦ": 795,
      "ì§Ī": 796,
      "ĠëĳĲ": 797,
      "íĤ": 798,
      "ëĲĲ": 799,
      "Ġë¬¼": 800,
      "ë¡ł": 801,
      "Ġë°Ŀ": 802,
      "ĠíķľêµŃ": 803,
      "Ġâ": 804,
      "ë§¤": 805,
      "Ġë°°": 806,
      "ëĤł": 807,
      "ìħ": 808,
      "âĢ¦": 809,
      "ĠìĪ": 810,
      "íĭ": 811,
      "íĮĮ": 812,
      "Ġë°ķ": 813,
      "Ġê³¼": 814,
      "ê»ĺ": 815,
      "¤Ħ": 816,
      "ëłĩ": 817,
      "ĠëķĮë¬¸": 818,
      "Ġëª»": 819,
      "íĹĺ": 820,
      "ĠìĹŃ": 821,
      "ëŀĢ": 822,
      "Ġíķł": 823,
      "êµ°": 824,
      "Ġì°¸": 825,
      "ìĬ¹": 826,
      "ìĬµëĭĪëĭ¤": 827,
      "ìłĢ": 828,
      "ëĬĶëį°": 829,
      "ĠíĿ": 830,
      "Ġ7": 831,
      "ĠíĨµíķ´": 832,
      "Ġíıī": 833,
      "Ġìŀĳ": 834,
      "ëĶĶ": 835,
      "ê°ķ": 836,
      "Ġ10": 837,
      "Ġìķŀ": 838,
      "ê²°": 839,
      "ì±ħ": 840,
      "íĿ": 841,
      "Ġì§ģ": 842,
      "Ġì§ĳ": 843,
      "Ġíı¬": 844,
      "íĻĺ": 845,
      "Ġíĸī": 846,
      "Ġíķ¨": 847,
      "Ġìļ°ë¦¬": 848,
      "Ġê¸Ī": 849,
      "ëŁī": 850,
      "Ġìļ´": 851,
      "ë³µ": 852,
      "±Ħ": 853,
      "ĠíĪ¬": 854,
      "ë§Ŀ": 855,
      "ĠìļĶ": 856,
      "Ġëģ": 857,
      "ĠìĥĪ": 858,
      "ì¡Į": 859,
      "ĠíĻľ": 860,
      "ì¼": 861,
      "Ġì§ĢìĹŃ": 862,
      "Ġë°Ŀíĺ": 863,
      "Ġ201": 864,
      "ì¦Ŀ": 865,
      "ì°°": 866,
      "ë£¨": 867,
      "ëŁ¼": 868,
      "Ġ8": 869,
      "Ġì²Ń": 870,
      "ìĶ¨": 871,
      "ìĻ¸": 872,
      "Ġíķľëĭ¤": 873,
      "ë³Ħ": 874,
      "Ġê·¸ëŁ¬": 875,
      "ë²Ħ": 876,
      "ë°Ķ": 877,
      "ĠëĨĴ": 878,
      "ĠëĮĢíķ´": 879,
      "Ġìĸ´ë": 880,
      "ĠíĶ¼": 881,
      "ĠìĻ¸": 882,
      "Ġë¨": 883,
      "íļį": 884,
      "Ġëªħ": 885,
      "ë³´ëĭ¤": 886,
      "íĮĲ": 887,
      "Ġì´Ŀ": 888,
      "ì£": 889,
      "±¸": 890,
      "íĻ©": 891,
      "íİ¸": 892,
      "ĠìĥĿê°ģ": 893,
      "ĠëĴ": 894,
      "·¨": 895,
      "íĨł": 896,
      "Ġë¯¼": 897,
      "¸Į": 898,
      "ĠíĶĦ": 899,
      "Ġë°ĿíĺĶ": 900,
      "Ġë§ŀ": 901,
      "íĥĿ": 902,
      "Ġë°ı": 903,
      "Ġê²Į": 904,
      "ìĺĪ": 905,
      "ĠìłĲ": 906,
      "ëĭ´": 907,
      "Ġíķ¨ê»ĺ": 908,
      "Ġì¢ĭ": 909,
      "Ġì¦Ŀ": 910,
      "ĠíĹ": 911,
      "ë¶ģ": 912,
      "ë¦½": 913,
      "ĠíĮĲ": 914,
      "Ġê²Ģ": 915,
      "Ĩį": 916,
      "ĠìĤ¬ìĹħ": 917,
      "ĠìĤ´": 918,
      "ëª©": 919,
      "ëĲľëĭ¤": 920,
      "Ġì´Ī": 921,
      "ĠíĮĮ": 922,
      "Ġ9": 923,
      "ĠëĮĢíĳľ": 924,
      "ĠìĤ°": 925,
      "Ġìĸĳ": 926,
      "ëĥ": 927,
      "ì¶ķ": 928,
      "íĶ¼": 929,
      "íĸ¥": 930,
      "ë°ķ": 931,
      "ì¡±": 932,
      "ĠìĦľìļ¸": 933,
      "Ġìłķë¶Ģ": 934,
      "ëįĶ": 935,
      "ë¦Ħ": 936,
      "ĠíķĦ": 937,
      "ĠíĻĶ": 938,
      "Ġë¬¸ìłľ": 939,
      "íķŃ": 940,
      "íĤ¤": 941,
      "ë°°": 942,
      "ê´ĳ": 943,
      "ëŀĳ": 944,
      "ì³": 945,
      "ĠëĴ¤": 946,
      "ĠëĲľ": 947,
      "ìĽĮ": 948,
      "Ġëĸ": 949,
      "ìĺ¨": 950,
      "Ġëª©": 951,
      "Ġì²ĺ": 952,
      "íķ¨": 953,
      "ëıĦë¡Ŀ": 954,
      "Ġê²½ìļ°": 955,
      "ĠìĿ´ë²Ī": 956,
      "Ġìĭ¬": 957,
      "ĠìĿ´ìĥģ": 958,
      "Ġê°ģ": 959,
      "ìĨ¡": 960,
      "000": 961,
      "Ġë³¸": 962,
      "ĠìŀĦ": 963,
      "íĨµëł¹": 964,
      "Ġê°Ħ": 965,
      "ĠìĨĲ": 966,
      "Ġì§ĢìĽĲ": 967,
      "ëĵ±": 968,
      "íĻľ": 969,
      "ìł¸": 970,
      "Ġëį°": 971,
      "ì´Ī": 972,
      "íĭ°": 973,
      "Ġê´Ģê³Ħ": 974,
      "Ġì½Ķ": 975,
      "ĠìĿĮ": 976,
      "ëħ¸": 977,
      "ëĦ¤": 978,
      "ë³ĳ": 979,
      "ì¹´": 980,
      "ì§ĳ": 981,
      "ĠëıĮ": 982,
      "ĠìĤ¼": 983,
      "ìľ¨": 984,
      "ë¥ĺ": 985,
      "Ġâĸ": 986,
      "Ġìĸ´ëĸ": 987,
      "Ġì»": 988,
      "ë¨": 989,
      "Ġë³Ģ": 990,
      "ì½Ķ": 991,
      "ĠìľĦíķľ": 992,
      "ĠëĮĢíĨµëł¹": 993,
      "ë¦¼": 994,
      "ëĭĪê¹Į": 995,
      "ĥī": 996,
      "Ġê°ĢëĬ¥": 997,
      "ëıħ": 998,
      "ëł¸": 999,
      "ĠíĻĺ": 1000,
      "Ġê´Ģëł¨": 1001,
      "ë¹": 1002,
      "ëģ": 1003,
      "Ġë¯¸êµŃ": 1004,
      "Ġì¹ĺ": 1005,
      "Ġê·¸ëŁ°": 1006,
      "ìľĦìĽĲ": 1007,
      "Ġë²ķ": 1008,
      "Ġì²´": 1009,
      "Ġìŀĺ": 1010,
      "Łģ": 1011,
      "ĠìĹħ": 1012,
      "Ġê´ĳ": 1013,
      "ĠìĨį": 1014,
      "Ġê²½ê¸°": 1015,
      "Ġìĭľìŀĳ": 1016,
      "íĺĳ": 1017,
      "Ġê±¸": 1018,
      "ìĿ´ëĤĺ": 1019,
      "ë§Ĳ": 1020,
      "ĠëŃ": 1021,
      "ĠëĪĪ": 1022,
      "ìłĪ": 1023,
      "Ġ19": 1024,
      "ê°Ŀ": 1025,
      "ĠëĶ°ëĿ¼": 1026,
      "ë¡Ģ": 1027,
      "ìĤ": 1028,
      "Ġì§ĢëĤľíķ´": 1029,
      "ë´": 1030,
      "Ġëĵľ": 1031,
      "Ġê·¼": 1032,
      "Ġì¤Ħ": 1033,
      "ìĸ¸": 1034,
      "Ġê¸°ìĹħ": 1035,
      "ĠíĴ": 1036,
      "Ġê·ľ": 1037,
      "Ġíĺĳ": 1038,
      "Ġíŀ": 1039,
      "ìŁģ": 1040,
      "ì»": 1041,
      "ìľ¼ë©°": 1042,
      "ê·ľ": 1043,
      "Ġì°¾": 1044,
      "Ġì·¨": 1045,
      "Ġì§Ħíĸī": 1046,
      "Ġíķ©": 1047,
      "Ġì§Ģê¸Ī": 1048,
      "ëĦĪ": 1049,
      "ĠìŀĲìĭł": 1050,
      "ëħĢ": 1051,
      "Ġì¢ħ": 1052,
      "ĠíĥĢ": 1053,
      "Ġíĺ¸": 1054,
      "ê²¬": 1055,
      "Ġì±Ħ": 1056,
      "íĪ¬": 1057,
      "íķ´ìķ¼": 1058,
      "ĠìĿĺìĽĲ": 1059,
      "ëĿ½": 1060,
      "ëłĩê²Į": 1061,
      "ĠíķĦìļĶ": 1062,
      "Ġê°Ģìŀ¥": 1063,
      "Ġìķ½": 1064,
      "ê¸¸": 1065,
      "Ġì¤ĳêµŃ": 1066,
      "Ġë¶ģ": 1067,
      "Ġìĺ¬íķ´": 1068,
      "Ġìĭľìŀ¥": 1069,
      "Ġ200": 1070,
      "ĠìĿ´íĽĦ": 1071,
      "Ġì°½": 1072,
      "ĠìķĦìĿ´": 1073,
      "ìĽĢ": 1074,
      "Ġë§Įëĵ¤": 1075,
      "ĠìĦ¸ê³Ħ": 1076,
      "ëı¼": 1077,
      "ë³Ģ": 1078,
      "ì£ł": 1079,
      "ĠêµŃëĤ´": 1080,
      "íıī": 1081,
      "ì²ĺëŁ¼": 1082,
      "Ġíģ¬": 1083,
      "ĠìĥģíĻ©": 1084,
      "ê·¹": 1085,
      "ĠëĬĺ": 1086,
      "Ġë²Ī": 1087,
      "ìĻĶ": 1088,
      "Ġì¶©": 1089,
      "ê¸°ìĹħ": 1090,
      "ãĨį": 1091,
      "ĠìĿ´ëĤł": 1092,
      "Ġë¡": 1093,
      "ìľµ": 1094,
      "ìķħ": 1095,
      "ëĥĲ": 1096,
      "ĠìĤ¬ìĭ¤": 1097,
      "ĠëĪĦ": 1098,
      "20": 1099,
      "ĠëĦĺ": 1100,
      "Ġì¤Ģ": 1101,
      "ìĿµ": 1102,
      "ĠìĿ´ëŁ°": 1103,
      "Ġëĭ´": 1104,
      "Ġê³Ħíļį": 1105,
      "Ġë¦": 1106,
      "Ġíģ°": 1107,
      "Ġëĭ¤ë¥¸": 1108,
      "Ġëĵ¤ìĸ´": 1109,
      "ì¦Ī": 1110,
      "ëĭĺ": 1111,
      "Ġëª¨ëĳĲ": 1112,
      "ĠìĪľ": 1113,
      "Ġíĳľ": 1114,
      "Ġìµľê·¼": 1115,
      "ĠíĶĦë¡ľ": 1116,
      "ì²ł": 1117,
      "Ġê·¸ë¦¬": 1118,
      "ì¶Ķ": 1119,
      "Ġê´Ģê³ĦìŀĲ": 1120,
      "ëĪ": 1121,
      "íħĮ": 1122,
      "ìĦ¼": 1123,
      "ĠêµĲìľ¡": 1124,
      "ëĿ¼ë©°": 1125,
      "íĿ¬": 1126,
      "ĠìĹĲ": 1127,
      "ëĵĿ": 1128,
      "ìĤ¬ìĹħ": 1129,
      "Ġíİ¸": 1130,
      "ìłĳ": 1131,
      "Ġ11": 1132,
      "Ġë´": 1133,
      "ëĨ": 1134,
      "ĠíĽĦë³´": 1135,
      "ĠìłķëıĦ": 1136,
      "ë°Ľ": 1137,
      "ì³Ĳ": 1138,
      "Ġìĸ¸": 1139,
      "Ġíļ": 1140,
      "Ġìĵ": 1141,
      "į¼": 1142,
      "Ġëħ¼": 1143,
      "ëĲł": 1144,
      "ĠíĬ¹íŀĪ": 1145,
      "Ġíķĺì§Ģë§Į": 1146,
      "ì¡´": 1147,
      "Ġìĺ¨": 1148,
      "Ġë³µ": 1149,
      "ĠìĶ": 1150,
      "ìħĺ": 1151,
      "ĠìĺĪìłķ": 1152,
      "ëŀľ": 1153,
      "ì°½": 1154,
      "ĠëĨį": 1155,
      "Ġíŀĺ": 1156,
      "ëĬĲ": 1157,
      "Ġ12": 1158,
      "Ġë¦¬": 1159,
      "ĠìĻĦ": 1160,
      "Ġìĸ¼": 1161,
      "ĠëŃĲ": 1162,
      "Ġìļ´ìĺģ": 1163,
      "ë²Į": 1164,
      "ìĪľ": 1165,
      "Ġê²½ìłľ": 1166,
      "ĠíĺĦìŀ¬": 1167,
      "ĠìĬ¹": 1168,
      "Ġëıħ": 1169,
      "ìĭľìŀ¥": 1170,
      "ĠìłĪ": 1171,
      "ë¹ĦìĬ¤": 1172,
      "ìĸ´ìļĶ": 1173,
      "ë¸Į": 1174,
      "ëĮĢë¡ľ": 1175,
      "ĠS": 1176,
      "ìĥī": 1177,
      "ĠëĤł": 1178,
      "ĠìĤ¬íļĮ": 1179,
      "ĠëĲł": 1180,
      "ì¹¨": 1181,
      "ĠêµŃë¯¼": 1182,
      "ìķ¡": 1183,
      "ê²¨": 1184,
      "Ġìĭľê°Ħ": 1185,
      "Ġëĭ¤ìĸĳ": 1186,
      "19": 1187,
      "Ġì¶Ķì§Ħ": 1188,
      "ĠëĿ": 1189,
      "Ġíĺķ": 1190,
      "ĠìĿ¼ë³¸": 1191,
      "ì¸µ": 1192,
      "ìĿĳ": 1193,
      "Ġì±ħ": 1194,
      "ë²Ķ": 1195,
      "ĠíķĺëĤĺ": 1196,
      "Ġê·¸ëŀĺ": 1197,
      "ë¶Ī": 1198,
      "Ġêµ°": 1199,
      "Ġì¹ľ": 1200,
      "ëŁ½": 1201,
      "ìĺ¬": 1202,
      "ĠìĤ¬ìļ©": 1203,
      "ĠìĿ´ìłľ": 1204,
      "Ġê°ĸ": 1205,
      "ëĤ¬": 1206,
      "ª½": 1207,
      "Ġëĭ¤ìĭľ": 1208,
      "ë¥ł": 1209,
      "íİĺ": 1210,
      "Ġê²°ê³¼": 1211,
      "ìķł": 1212,
      "Ġì¹´": 1213,
      "ê³³": 1214,
      "ĠíĪ¬ìŀĲ": 1215,
      "ĠëĮĢìĥģ": 1216,
      "Ġíĸ¥": 1217,
      "ĠìĭĿ": 1218,
      "Ġìĭ¶": 1219,
      "ĠëĲĲ": 1220,
      "ãĢ": 1221,
      "ìĹĶ": 1222,
      "ĠíĹĪ": 1223,
      "Ġë²Į": 1224,
      "Ġíĥľ": 1225,
      "ë°±": 1226,
      "¸Ķ": 1227,
      "ê²Ģ": 1228,
      "ĠK": 1229,
      "Ġ30": 1230,
      "ãİ": 1231,
      "ë§ī": 1232,
      "ìĹ´": 1233,
      "¿Ĳ": 1234,
      "ĠìĶ¨": 1235,
      "ì¸ł": 1236,
      "Ġê³³": 1237,
      "ĠìłĦë¬¸": 1238,
      "íĶĮ": 1239,
      "ìµľ": 1240,
      "Ġê°ľë°ľ": 1241,
      "ì§¸": 1242,
      "Ġë©Ķ": 1243,
      "ĠëĶ°ë¥´": 1244,
      "ĠëĬĲ": 1245,
      "ĠíĨł": 1246,
      "Ġë§ī": 1247,
      "íģ¼": 1248,
      "ëĬĶëĭ¤": 1249,
      "ĠìĿ´ìļ©": 1250,
      "ĠìĦ¤ëªħ": 1251,
      "Ġê·¸ëŁ¬ëĤĺ": 1252,
      "ìľ¼ë©´": 1253,
      "Ġë°±": 1254,
      "Ġê¶Į": 1255,
      "ľ´": 1256,
      "ĠíķĻìĥĿ": 1257,
      "ĠëĦĪ": 1258,
      "ê²ĥ": 1259,
      "ìĭŃ": 1260,
      "Ġì²«": 1261,
      "Ġìķ¼": 1262,
      "Ġì¸": 1263,
      "Ġìłĳ": 1264,
      "ĠëĲľëĭ¤": 1265,
      "ì§ĢìĹŃ": 1266,
      "ëĬĺ": 1267,
      "%)": 1268,
      "Ġ15": 1269,
      "ìĬ¤íĬ¸": 1270,
      "ĠíĻį": 1271,
      "Ġê¸Ģ": 1272,
      "Ġê·¸ë¦¬ê³ł": 1273,
      "ĠëģĿ": 1274,
      "ë¨¸": 1275,
      "ë¡ľìļ´": 1276,
      "Ġì¢Ģ": 1277,
      "ĠêµŃê°Ģ": 1278,
      "Ġìŀ¡": 1279,
      "ì¹ľ": 1280,
      "ê±°ëĤĺ": 1281,
      "ĽĪ": 1282,
      "Ġì°¸ìĹ¬": 1283,
      "ìĭľê°Ħ": 1284,
      "Ġê¸°ë¡Ŀ": 1285,
      "Ġë§İìĿ´": 1286,
      "Ġì§Ī": 1287,
      "Ġê¼": 1288,
      "Ġë²Ħ": 1289,
      "ĠìĹ°êµ¬": 1290,
      "Ġê·¸ëłĩ": 1291,
      "ê·ł": 1292,
      "ì¼Ģ": 1293,
      "ìĦ¼íĦ°": 1294,
      "ë¡ľëĤĺ": 1295,
      "ìļ´ëį°": 1296,
      "Ġìķł": 1297,
      "Ġíļ¨": 1298,
      "ëĿ¼ëıĦ": 1299,
      "ĠA": 1300,
      "Ġë¸Į": 1301,
      "Ġíħ": 1302,
      "ëĭ¤ê°Ģ": 1303,
      "Ġì¡°ìĤ¬": 1304,
      "íķĻêµĲ": 1305,
      "Ġì¡": 1306,
      "ĠíĬ¸": 1307,
      "Ġëª¨ìĬµ": 1308,
      "ĠìĤ¼ìĦ±": 1309,
      "ì´Ŀ": 1310,
      "ĠL": 1311,
      "ìĸ´ìĦľ": 1312,
      "êµĲìľ¡": 1313,
      "ĠíķŃ": 1314,
      "Ġìļ©": 1315,
      "Ġì¸¡": 1316,
      "ī´": 1317,
      "ì½": 1318,
      "ìĹĨ": 1319,
      "ĠëĶĶ": 1320,
      "Ġê¸°ëĮĢ": 1321,
      "ĠëĿ¼": 1322,
      "Ġìº": 1323,
      "ĠêµŃíļĮ": 1324,
      "Ġë§ĪìĿĮ": 1325,
      "Ġì»¤": 1326,
      "Ġëľ": 1327,
      "Ġê°Ģìļ´ëį°": 1328,
      "Ġë§Īëł¨": 1329,
      "Ġë¨¹": 1330,
      "ìľĦìĽĲíļĮ": 1331,
      "Ġë¶ĢìĤ°": 1332,
      "Ġì²ľ": 1333,
      "ê°Ī": 1334,
      "Ġê¸°ìĪł": 1335,
      "Ġë¹ł": 1336,
      "ì±Ħ": 1337,
      "Ġíıīê°Ģ": 1338,
      "êµ´": 1339,
      "ĠìķĦëĭ": 1340,
      "¾¸": 1341,
      "Ġìłķì¹ĺ": 1342,
      "Ġê¸¸": 1343,
      "Ġì²ł": 1344,
      "ĠíıŃ": 1345,
      "Ġì£": 1346,
      "ĠëĤĺíĥĢ": 1347,
      "Ġìµľê³ł": 1348,
      "ë©Ķ": 1349,
      "ĠìĿ´ìĸ´": 1350,
      "íĮ¨": 1351,
      "ĠìĿ´ëłĩê²Į": 1352,
      "Ġì¶ķ": 1353,
      "Ġê¸Īìľµ": 1354,
      "ìĭľìķĦ": 1355,
      "Ġë°ľíĳľ": 1356,
      "Ġë¬¸íĻĶ": 1357,
      "Ġë°ľìĥĿ": 1358,
      "Ġë³ĳ": 1359,
      "ëŀ¨": 1360,
      "Ġìłľê³µ": 1361,
      "ĠìĿ´ìľł": 1362,
      "Ġëĳ": 1363,
      "Ġê¸ī": 1364,
      "Ġìĵ°": 1365,
      "íĮĢ": 1366,
      "ĠìŀĲë¦¬": 1367,
      "ìļ±": 1368,
      "íķ´ìĦľ": 1369,
      "ĠìłĦêµŃ": 1370,
      "Ġëĸł": 1371,
      "Ġê°Ī": 1372,
      "Ġìī": 1373,
      "¨ìĸ´": 1374,
      "Ġâĸ³": 1375,
      "ĠìĤ¬ìĿ´": 1376,
      "Ġê²°ìłķ": 1377,
      "ë¦´": 1378,
      "ĠìĦłìĪĺ": 1379,
      "ëĭ¤ë©´": 1380,
      "ĠíĻķëĮĢ": 1381,
      "Ġìĸ´ëĸ¤": 1382,
      "ëĬĶì§Ģ": 1383,
      "Ġê°Ģì§Ģ": 1384,
      "Ġë¯¼ì£¼": 1385,
      "ìĹ¼": 1386,
      "ê¸´": 1387,
      "Ġì²ĺìĿĮ": 1388,
      "Ġë³¼": 1389,
      "ĠëĮĢêµ¬": 1390,
      "ëłĪìĿ´": 1391,
      "Ġëª¨ëĵł": 1392,
      "Ġì£¼ìŀ¥": 1393,
      "ëŀľëĵľ": 1394,
      "Ġê¸°ì¤Ģ": 1395,
      "ĠìłľíĴĪ": 1396,
      "ĠâĹ": 1397,
      "ĠëĤ´ìļ©": 1398,
      "Ġì¦Ŀê°Ģ": 1399,
      "ĠíĮĲë§¤": 1400,
      "ĩ´": 1401,
      "Ġë³´ìĿ´": 1402,
      "ĠíĻķìĿ¸": 1403,
      "ĠìĿ´ë¯¸": 1404,
      "ëĳ": 1405,
      "ìĤ´": 1406,
      "ĠìĿĢ": 1407,
      "Ġìĸ´ëł¤": 1408,
      "ĠëıĻìķĪ": 1409,
      "ìķ¼ê¸°": 1410,
      "ìĿĢíĸī": 1411,
      "íĥĦ": 1412,
      "ĠêµĲìĪĺ": 1413,
      "ĠìĦľë¹ĦìĬ¤": 1414,
      "ĠìµľëĮĢ": 1415,
      "ê·¸ëŀ¨": 1416,
      "Ġìĭľë¯¼": 1417,
      "Ġê³¨": 1418,
      "Ġë¶ģíķľ": 1419,
      "ìĿ´ëĿ¼ê³ł": 1420,
      "ĠíĦ": 1421,
      "ìĤ°ìĹħ": 1422,
      "Ġëĭ¹ìĭľ": 1423,
      "ĠíļĮìŀ¥": 1424,
      "Ġìļ¸": 1425,
      "Ġìŀł": 1426,
      "Ġìĸĺ": 1427,
      "ĠëĮĢíķĻ": 1428,
      "ë§ĪíĬ¸": 1429,
      "Ġê²½ì°°": 1430,
      "Ġìłķì±ħ": 1431,
      "ĠíĮ¨": 1432,
      "Ġì¤ĳìļĶ": 1433,
      "ìŀĪ": 1434,
      "Ġì½": 1435,
      "ĠìłĦë§Ŀ": 1436,
      "ĠíĺĦëĮĢ": 1437,
      "íĺľ": 1438,
      "ëŀµ": 1439,
      "ì°©": 1440,
      "ìŀħëĭĪëĭ¤": 1441,
      "ĠC": 1442,
      "íĺģ": 1443,
      "Ġë¡ľ": 1444,
      "ë£¹": 1445,
      "ĠíĻľëıĻ": 1446,
      "ĠìķĮëł¤": 1447,
      "Ġëª¸": 1448,
      "ë´ī": 1449,
      "Ġì§Ģìłģ": 1450,
      "Ġê·ľëª¨": 1451,
      "ìĿ¸ëĭ¤": 1452,
      "ĠìĿ´ìķ¼ê¸°": 1453,
      "Ġì£¼ë¯¼": 1454,
      "Ġì§ģìłĳ": 1455,
      "ĠëıĮìķĦ": 1456,
      "Ġëª°": 1457,
      "Ġê³¼ìłķ": 1458,
      "Ġë©´": 1459,
      "ëĨĵ": 1460,
      "ĠíĶ¼íķ´": 1461,
      "Ġëĭ¤ìĿĮ": 1462,
      "Ġìĸ´ëĸ»": 1463,
      "ĠíķĻêµĲ": 1464,
      "ëĪĦ": 1465,
      "Ġ100": 1466,
      "ë¬¸íĻĶ": 1467,
      "Ġê°Ĳëıħ": 1468,
      "Ġê°ķì¡°": 1469,
      "ì¼ľ": 1470,
      "Ġê°ķíĻĶ": 1471,
      "Ġì¤Ģë¹Ħ": 1472,
      "ìª½": 1473,
      "Ġëł": 1474,
      "ëħĲ": 1475,
      "ìķĻ": 1476,
      "ëĭµ": 1477,
      "Ġë²ł": 1478,
      "Ġê´Ģìĭ¬": 1479,
      "Ġê²½ìŁģ": 1480,
      "íħľ": 1481,
      "ĠìĤ°ìĹħ": 1482,
      "Ġ13": 1483,
      "Ġíķľíİ¸": 1484,
      "Ġíı¬íķ¨": 1485,
      "Ġìĸĺê¸°": 1486,
      "ì°¬": 1487,
      "ĠìĹ¬ìĦ±": 1488,
      "ĠìĹĦ": 1489,
      "Ġìŀħìŀ¥": 1490,
      "ĠëĨĵ": 1491,
      "íį¼": 1492,
      "ĠíĸīìĤ¬": 1493,
      "ë¡¯": 1494,
      "ĠíĻľìļ©": 1495,
      "Ġë¶ĦìĦĿ": 1496,
      "ĠìĹĨìĿ´": 1497,
      "ê¸Ģ": 1498,
      "ĠìĪĺì¤Ģ": 1499,
      "ĠëĤľ": 1500,
      "Ġë¨¸": 1501,
      "ìłĦìŀĲ": 1502,
      "į¨": 1503,
      "ĠìĺģíĻĶ": 1504,
      "ĠìĿ¼ë¶Ģ": 1505,
      "Ġê·¹": 1506,
      "ê¹Ģ": 1507,
      "ĠìĿ´ë": 1508,
      "Ġ16": 1509,
      "Ġê·¸ëŀĺìĦľ": 1510,
      "ĠìĻľ": 1511,
      "ĠìĽĶ": 1512,
      "Ġ18": 1513,
      "ĠìĤ¬ê±´": 1514,
      "ê¸°ê´Ģ": 1515,
      "Ġê³ĦìĨį": 1516,
      "ĠìłĦì²´": 1517,
      "ĠìĦ±ìŀ¥": 1518,
      "Ġ14": 1519,
      "Ġì½Ķë¡ľëĤĺ": 1520,
      "ê³¡": 1521,
      "ĠìĥĿìĤ°": 1522,
      "ĠëĺĲíķľ": 1523,
      "ì¸¡": 1524,
      "Ġëª»íķĺ": 1525,
      "ĠìĥĪë¡ľìļ´": 1526,
      "Ġì£½": 1527,
      "ê°Ķ": 1528,
      "Ġìĺ¤íĽĦ": 1529,
      "Ġë¬¼ë¡ł": 1530,
      "Ġì¤ĳìĭ¬": 1531,
      "íĻķ": 1532,
      "ĠëĤĺìĺ¤": 1533,
      "Ġê³µê°ľ": 1534,
      "ê±°ë¦¬": 1535,
      "ëĤĺëĿ¼": 1536,
      "ì¦Į": 1537,
      "ĠíĤ": 1538,
      "ĠìļĶêµ¬": 1539,
      "ë°Ģ": 1540,
      "ìĸ´ëĤĺ": 1541,
      "íıŃ": 1542,
      "ĠëĤ®": 1543,
      "Ġêµ¬ìĦ±": 1544,
      "ìĨĮë¦¬": 1545,
      "ĠêµŃìłľ": 1546,
      "ĠíĻĺê²½": 1547,
      "ĠìĺĪìĥģ": 1548,
      "ìĭľìĦ¤": 1549,
      "íĺ¼": 1550,
      "ëŀĲ": 1551,
      "ìĤ¬íļĮ": 1552,
      "ĠìĹ¬ëŁ¬": 1553,
      "Ġë°©ìĨ¡": 1554,
      "ëıĮ": 1555,
      "íĽĪ": 1556,
      "Ġìľ¤": 1557,
      "Ġê´Ģë¦¬": 1558,
      "Ġê³łê°Ŀ": 1559,
      "ëĥĪ": 1560,
      "Ġê°Ģê²©": 1561,
      "ĠìĹ¬ê¸°": 1562,
      "Ġì¶Ķê°Ģ": 1563,
      "ìĹ°êµ¬": 1564,
      "íĮħ": 1565,
      "ê²½ìłľ": 1566,
      "ë²ł": 1567,
      "ìĬ¨": 1568,
      "ìĥĪ": 1569,
      "Ġë§Įíģ¼": 1570,
      "Ġê·¸ëħĢ": 1571,
      "ë¸Ķ": 1572,
      "ìłķë¶Ģ": 1573,
      "Ġëĸ¨ìĸ´": 1574,
      "Ġíķµ": 1575,
      "ĠìĨ¡": 1576,
      "ĠìķĦëĭĮ": 1577,
      "ìĩ": 1578,
      "Ġìľ¡": 1579,
      "ĠìĹŃìĭľ": 1580,
      "Ġíĭ": 1581,
      "ĠíĻ©": 1582,
      "ĠëĮĢë¹Ħ": 1583,
      "ëĦĲ": 1584,
      "Ġ(": 1585,
      "ê³¨": 1586,
      "Ġê´ĳì£¼": 1587,
      "ì§ķ": 1588,
      "ìķĦìļĶ": 1589,
      "ĠìĿĳ": 1590,
      "ĠëĦĪë¬´": 1591,
      "Ġê²Ģì°°": 1592,
      "íĺĢ": 1593,
      "íı°": 1594,
      "ëĿ¼ìĿ¸": 1595,
      "íħĶ": 1596,
      "Ġ25": 1597,
      "ĠëłĪ": 1598,
      "ëľ": 1599,
      "ĠíĶĦë¡ľê·¸ëŀ¨": 1600,
      "Ġëħ¸ëł¥": 1601,
      "íĬ¹": 1602,
      "ìĤ¼": 1603,
      "ĠìĨĮë¹Ħ": 1604,
      "ëĨį": 1605,
      "ĠëıĦìĭľ": 1606,
      "Ġê³µëıĻ": 1607,
      "Ġ50": 1608,
      "ĠìĹ´ë¦°": 1609,
      "Ġìłķë³´": 1610,
      "Ġë³Ħ": 1611,
      "Ġì§Ģë°©": 1612,
      "Ġì¡°ìĦ±": 1613,
      "ĠìĿ¸ì²ľ": 1614,
      "Ġë³´ìĹ¬": 1615,
      "ĠíħĮ": 1616,
      "Ġë°Ķë¡ľ": 1617,
      "ì³¤": 1618,
      "ìŀĲë¦¬": 1619,
      "ìľ¼ëĤĺ": 1620,
      "ĠíĿ¬": 1621,
      "ìĹħì²´": 1622,
      "ĠíļĮìĤ¬": 1623,
      "ĠìķĪìłĦ": 1624,
      "ì§ĢìĽĲ": 1625,
      "ĠëĮĢíķ´ìĦľ": 1626,
      "Ġëı¼": 1627,
      "ĠëįĶìļ±": 1628,
      "Ġ17": 1629,
      "Ġíķ´ìĻ¸": 1630,
      "ĠíıĲ": 1631,
      "ëıĻìķĪ": 1632,
      "ĠìĦłê±°": 1633,
      "ĠëıĪ": 1634,
      "ê´Ģë¦¬": 1635,
      "ĠìĤ¬ëŀĳ": 1636,
      "ĠìĦłìłķ": 1637,
      "Ġëĵ¯": 1638,
      "ĠíĤ¤": 1639,
      "ĠìĥģëĮĢ": 1640,
      "Ġìĥģíĥľ": 1641,
      "Ġë²Ķ": 1642,
      "Ġê¸°ì¡´": 1643,
      "ì·¨": 1644,
      "íĮĮíĬ¸": 1645,
      "Ġíľ´": 1646,
      "ĠìķĦë¬´": 1647,
      "Ġë°©ë¬¸": 1648,
      "Ġë¶Ģë¶Ħ": 1649,
      "ĠìĿ¸ìĤ¬": 1650,
      "ìľĦê¸°": 1651,
      "ëıĦìĭľ": 1652,
      "ĠëĽ": 1653,
      "Ġë¹Ħë¡¯": 1654,
      "ê°ľìĽĶ": 1655,
      "Ġë¶Ħìķ¼": 1656,
      "Ġìłģê·¹": 1657,
      "ëıĻì°¨": 1658,
      "ë°ĸ": 1659,
      "Ġê°ľìĦł": 1660,
      "ìĬ¤íħľ": 1661,
      "Ġìĸ´ëĸ»ê²Į": 1662,
      "ĠM": 1663,
      "ê°Ģì§Ģ": 1664,
      "Ġë¨¼": 1665,
      "Ġë§¡": 1666,
      "ĠìĥĿíĻľ": 1667,
      "Ġì§ĢìĨį": 1668,
      "ĠìĪĺìĤ¬": 1669,
      "ĠíĶĮ": 1670,
      "ìŀ¡": 1671,
      "ĠíĺĦìŀ¥": 1672,
      "ĠëĤ´ëħĦ": 1673,
      "ê³µìĤ¬": 1674,
      "ëĮĢíĳľ": 1675,
      "Ġì¹¨": 1676,
      "ĠìĦ±ê³µ": 1677,
      "Ġë°Ģ": 1678,
      "íļ¨": 1679,
      "ì¶©": 1680,
      "ĢìĿ´": 1681,
      "íĥģ": 1682,
      "ì¡°ìĤ¬": 1683,
      "ëģ¼": 1684,
      "ë¡ľë²Į": 1685,
      "Ġíļ¨ê³¼": 1686,
      "Ġê·Ģ": 1687,
      "ìĨĲ": 1688,
      "Ġì£¼ìļĶ": 1689,
      "ĠíĮĢ": 1690,
      "ëĭ¨ì²´": 1691,
      "Ġê°ľìĿ¸": 1692,
      "ê°ľë°ľ": 1693,
      "Ġìħ": 1694,
      "Ġìĭ¤ìłľ": 1695,
      "Ġê°Ģì¡±": 1696,
      "ëĤ¸": 1697,
      "ìĪĻ": 1698,
      "ĠíĻķë³´": 1699,
      "ĠíĬ¹ë³Ħ": 1700,
      "Ġë¯¸ëŀĺ": 1701,
      "Ġìłģìļ©": 1702,
      "ìĭľíĤ¤": 1703,
      "íĻĺê²½": 1704,
      "ì£Ħ": 1705,
      "ìĸ´ìķ¼": 1706,
      "Ġìķħ": 1707,
      "Ġë¿Ĳ": 1708,
      "ĠI": 1709,
      "ĠìĦ¤ì¹ĺ": 1710,
      "ĠìķĦì§ģ": 1711,
      "ĠëĽ°": 1712,
      "íĿ¥": 1713,
      "ë§ģ": 1714,
      "ĠìĿ¸íĦ°": 1715,
      "ĠíĦ°": 1716,
      "ĠíĥĦ": 1717,
      "ìĽĲìŀ¥": 1718,
      "ìĿ´íĬ¸": 1719,
      "Ġê¸°ìŀĲ": 1720,
      "Ġìĺģíĸ¥": 1721,
      "ĠìĥģìĬ¹": 1722,
      "Ġìĸ»": 1723,
      "ëĦĪì§Ģ": 1724,
      "Ġê¸°ê°Ħ": 1725,
      "ĠíĮĶ": 1726,
      "Ġë³´ìĿ¸ëĭ¤": 1727,
      "10": 1728,
      "Ġê·¸ê²ĥ": 1729,
      "ëķĮ": 1730,
      "ì»¤": 1731,
      "Ġì¦Ĳ": 1732,
      "Ġì¡´": 1733,
      "ê²½ê¸°": 1734,
      "ëįķ": 1735,
      "ê±¸": 1736,
      "ì¿": 1737,
      "íķĳ": 1738,
      "Ġ0": 1739,
      "Ġíİ¼": 1740,
      "ĠìĺĪìĤ°": 1741,
      "ĠìĹŃíķł": 1742,
      "Ġê¿": 1743,
      "íĺ¹": 1744,
      "ĠìĿ´ë¤Ħ": 1745,
      "ĠíĻĪ": 1746,
      "Ġìļ°ëł¤": 1747,
      "ĠìŀĳíĴĪ": 1748,
      "ĠìĹ¬ìŀĲ": 1749,
      "ĠëĤĺìĺ¨": 1750,
      "ìĶ©": 1751,
      "ìĽł": 1752,
      "Ġëĳĺ": 1753,
      "ĠìĿ¼ë°ĺ": 1754,
      "Ġì§ĢëĤľëĭ¬": 1755,
      "ĠìĿ´ë¦Ħ": 1756,
      "ĠìĨĮë¦¬": 1757,
      "ê¸°ìĪł": 1758,
      "ľĺ": 1759,
      "íļĮìĿĺ": 1760,
      "Ġìĸ¼êµ´": 1761,
      "ë¦¬ìķĦ": 1762,
      "Ġìŀ¥ê´Ģ": 1763,
      "Ġì§ģìĽĲ": 1764,
      "ì§Ħëĭ¤": 1765,
      "ê·¸ë£¹": 1766,
      "ìĿ¸ëį°": 1767,
      "Ġìĭ¤ìĭľ": 1768,
      "ìħ¨": 1769,
      "Ġíĺ¼": 1770,
      "Ġê´Ģê´ĳ": 1771,
      "ĠìĥģíĴĪ": 1772,
      "Ġë§ĮëĤĺ": 1773,
      "ĠìĻĶ": 1774,
      "Ġë°ľìłĦ": 1775,
      "íĥĪ": 1776,
      "Ġê¸´": 1777,
      "ìĿ´ìĬ¤": 1778,
      "ì§ľ": 1779,
      "Ġ24": 1780,
      "Ġì±ħìŀĦ": 1781,
      "íĨ": 1782,
      "ë³¼": 1783,
      "Ġì§ĳì¤ĳ": 1784,
      "Ġíķ´ëĭ¹": 1785,
      "ĠìĹŃìĤ¬": 1786,
      "Ġëľ»": 1787,
      "ëį¸": 1788,
      "¶ģ": 1789,
      "Ġìī½": 1790,
      "ĠìķŀìĦľ": 1791,
      "Ġê·¸ëŁ°ëį°": 1792,
      "Ġê±´ê°ķ": 1793,
      "ìĹĨìĿ´": 1794,
      "ĠT": 1795,
      "ê°Ļ": 1796,
      "ĠìĿĺë¯¸": 1797,
      "ìĿ¸ì§Ģ": 1798,
      "ĠëģĮ": 1799,
      "ĠìĽĥ": 1800,
      "ìĻķ": 1801,
      "Ġê°ľìµľ": 1802,
      "Ġìľłì§Ģ": 1803,
      "ĠíĴį": 1804,
      "Ġëª»íĸĪ": 1805,
      "ĠìŀĲê¸°": 1806,
      "Ġë§¤ì¶ľ": 1807,
      "ìĦ°": 1808,
      "ìĿĺìĽĲ": 1809,
      "Ġê·¸ëłĩê²Į": 1810,
      "Ġíģ´": 1811,
      "ìį¨": 1812,
      "30": 1813,
      "Ġëª¨ë¥´": 1814,
      "ì¹ł": 1815,
      "ĠíĽ": 1816,
      "íĴį": 1817,
      "Ġê±´ìĦ¤": 1818,
      "íĹĪ": 1819,
      "Ġë°©ìĭĿ": 1820,
      "ĠëĵľëŁ¬": 1821,
      "ĠìĬ¤íĥĢ": 1822,
      "ĠìĻ¸êµŃ": 1823,
      "Ġìı": 1824,
      "ĠìĹħì²´": 1825,
      "Ġìłķìĥģ": 1826,
      "ì¤": 1827,
      "Ġê¸Ģë¡ľë²Į": 1828,
      "ĠìĪĺì¶ľ": 1829,
      "ĠíĥĪ": 1830,
      "Ġëī´": 1831,
      "Ġìĺ¤ëĬĺ": 1832,
      "ë¶Ģë¶Ħ": 1833,
      "Ġíķ´ê²°": 1834,
      "ë§Īëĭ¤": 1835,
      "Ġê±": 1836,
      "ëłµ": 1837,
      "ëĭ¬ëŁ¬": 1838,
      "Ġìĸ´ëĬĲ": 1839,
      "ë¶Ļ": 1840,
      "íŀĮ": 1841,
      "Ġë³ĢíĻĶ": 1842,
      "ĠìĿĺê²¬": 1843,
      "ĠãĢ": 1844,
      "ĠíĴĢ": 1845,
      "ë¿Ĳ": 1846,
      "Ġ40": 1847,
      "ë¡Ń": 1848,
      "Ġ21": 1849,
      "ĠíĺĲ": 1850,
      "Ġê²½ìĺģ": 1851,
      "ĠìķĦíĮĮíĬ¸": 1852,
      "ìĹĩ": 1853,
      "ìŀĸ": 1854,
      "ë²Ħì§Ģ": 1855,
      "ĠB": 1856,
      "Ġê°ģê°ģ": 1857,
      "ìĿĺíļĮ": 1858,
      "Ġë¯¼ì£¼ëĭ¹": 1859,
      "ëĥ¥": 1860,
      "Ġíİĺ": 1861,
      "ĠìľĦíķ´ìĦľ": 1862,
      "Ġë¶Ģëĭ´": 1863,
      "ĠìŀĲì²´": 1864,
      "Ġëĭµ": 1865,
      "Ġìĭľíĸī": 1866,
      "íķľëĭ¤ëĬĶ": 1867,
      "Ġë¨¼ìłĢ": 1868,
      "ì°¸": 1869,
      "Ġëªĩ": 1870,
      "Ġìĸ´ë¦°": 1871,
      "Ġíıīê·ł": 1872,
      "Ġê³µê¸ī": 1873,
      "Ġê²°êµŃ": 1874,
      "ê²¼": 1875,
      "Ġì°¸ìĦĿ": 1876,
      "ĠìŀĲìľł": 1877,
      "ĠìĬ¤ë§ĪíĬ¸": 1878,
      "Ġì½ĺ": 1879,
      "ĠìĹħë¬´": 1880,
      "Ġìĺ¤ìłĦ": 1881,
      "Ġíķĺë£¨": 1882,
      "ì´Į": 1883,
      "ë°ĸìĹĲ": 1884,
      "Ġëķ": 1885,
      "ëŁ¬ìĬ¤": 1886,
      "ì¤Ħ": 1887,
      "ĠìłĦë¬¸ê°Ģ": 1888,
      "ëĦ·": 1889,
      "ĠíĮĲëĭ¨": 1890,
      "Ġë°©ë²ķ": 1891,
      "Ġì°¾ìķĦ": 1892,
      "íķĦ": 1893,
      "Ġìĺ¬ëĿ¼": 1894,
      "Ġë°©ìķĪ": 1895,
      "ìłĦíŀĪ": 1896,
      "ë¨¼": 1897,
      "Ġ22": 1898,
      "ãİ¡": 1899,
      "ì¶ĺ": 1900,
      "ë¯¼ì£¼": 1901,
      "ĠìĻĢ": 1902,
      "Ġê¸°íļĮ": 1903,
      "ĠíĺĲìĿĺ": 1904,
      "ĠìĦłë³´": 1905,
      "ĠëıĦìŀħ": 1906,
      "Ġëª©íĳľ": 1907,
      "ì£¼ìĿĺ": 1908,
      "ë·": 1909,
      "ĳ¸": 1910,
      "Ġìłķë§Ĳ": 1911,
      "ĠìĦłíĥĿ": 1912,
      "Ġìĸ¼ë§Ī": 1913,
      "ĠëĶ°ë¥¸": 1914,
      "íĶ½": 1915,
      "Ġë¸Įëŀľëĵľ": 1916,
      "ìĻĢëĮĢ": 1917,
      "Ġëħ¸ëıĻ": 1918,
      "ĠëŁ": 1919,
      "Ġê³µìĹ°": 1920,
      "ìº": 1921,
      "Ġì¡°ê¸Ī": 1922,
      "Ī¼": 1923,
      "ĠìĤ¶": 1924,
      "Ġëª©ìĨĮë¦¬": 1925,
      "Ġìĭľì¦Į": 1926,
      "íĩ´": 1927,
      "ëĮĢíļĮ": 1928,
      "Ġ23": 1929,
      "ĠëĬĲëĤ": 1930,
      "ĠëĤ¨ìŀĲ": 1931,
      "ĠìłĦíĸĪ": 1932,
      "ìĿĦê¹Į": 1933,
      "ìĦ¸ìļĶ": 1934,
      "ĠLG": 1935,
      "50": 1936,
      "Ġë¬´ìĹĩ": 1937,
      "ĠëĮĢíļĮ": 1938,
      "ì¶°": 1939,
      "ĠP": 1940,
      "Ġê³łëł¤": 1941,
      "½ĥ": 1942,
      "Ġìķķ": 1943,
      "ë²½": 1944,
      "ìģ": 1945,
      "Ġíķ´ìķ¼": 1946,
      "ĠìĤ¬ìŀ¥": 1947,
      "Ġë´ī": 1948,
      "ĠíĴĪ": 1949,
      "ĠìłĦëŀµ": 1950,
      "Ġì¼": 1951,
      "ĠëĤ´ëł¤": 1952,
      "ê¾¸": 1953,
      "ìķĶ": 1954,
      "Ġìĭłì²Ń": 1955,
      "ë²¤": 1956,
      "ëĬĲëĥĲ": 1957,
      "ë°ĺê¸°": 1958,
      "íģ´": 1959,
      "Ġì¤ĳìĨĮ": 1960,
      "Ġêµ¬ì¶ķ": 1961,
      "ĠìĿ¸ìłķ": 1962,
      "ĠìĪ¨": 1963,
      "ëĵ¯": 1964,
      "ìĹĲìĦł": 1965,
      "Ġê¾¸": 1966,
      "íĪ¬ìŀĲ": 1967,
      "Ġì¶ľìĭľ": 1968,
      "Ġ-": 1969,
      "ĠëĮĢë¶Ģë¶Ħ": 1970,
      "ëł¤ê³ł": 1971,
      "íķľêµŃ": 1972,
      "Ġíĸīìłķ": 1973,
      "Ġì°¨ì§Ģ": 1974,
      "ĠìŀĲìĹ°": 1975,
      "Ġì§ĢëĤĺ": 1976,
      "íĦ´": 1977,
      "ĠìĦĿ": 1978,
      "ĠìĿ´íķ´": 1979,
      "ĠëıĦìĽĢ": 1980,
      "íĭĢ": 1981,
      "ĠìĤ¬ê³ł": 1982,
      "ĠëĤĺìĻĶ": 1983,
      "Ġëħ¼ìĿĺ": 1984,
      "Ġë¹ĦíĮĲ": 1985,
      "Ġê²©": 1986,
      "Ġì°©": 1987,
      "íĥķ": 1988,
      "Ġë³´ëıĦ": 1989,
      "ĠëĮĢìĿĳ": 1990,
      "Ġê¿Ī": 1991,
      "Ġë¡¯": 1992,
      "ì§Ģë§ī": 1993,
      "Ġìĥģëĭ¹": 1994,
      "íĹĮ": 1995,
      "%,": 1996,
      "íĤ¨": 1997,
      "Ġë¸Ķ": 1998,
      "ê¸Īìľµ": 1999,
      "Ġë°°ìļ°": 2000,
      "Ġë°ĺëĮĢ": 2001,
      "Ġ27": 2002,
      "Ġê²¨": 2003,
      "Ġíĺģ": 2004,
      "ĠìºĲ": 2005,
      "ê´": 2006,
      "Ġìłľìŀĳ": 2007,
      "Ġë¡¯ëį°": 2008,
      "ĠSK": 2009,
      "ê·Ģ": 2010,
      "Ġì²ŃìĻĢëĮĢ": 2011,
      "Ġê°ĲìĨĮ": 2012,
      "Ġìłľê¸°": 2013,
      "ìļķ": 2014,
      "ĠìĿ¸ê¸°": 2015,
      "ëĿ¼ë©´": 2016,
      "ìĬ¤íĥĢ": 2017,
      "ìĻĦ": 2018,
      "Ġë§Ľ": 2019,
      "ĠG": 2020,
      "Ġìļ°ìĦł": 2021,
      "Ġ26": 2022,
      "Ġê³µê³µ": 2023,
      "ìī": 2024,
      "Ġë³´ìĺĢ": 2025,
      "ĠìĿ´ìłĦ": 2026,
      "Ġëħ¼ëŀĢ": 2027,
      "ĠìĤ¬ì§Ħ": 2028,
      "ìĿ¸íĬ¸": 2029,
      "Ġê²½íĹĺ": 2030,
      "Ġê°ĲìĤ¬": 2031,
      "íĻľëıĻ": 2032,
      "ĠíĻĺìŀĲ": 2033,
      "Ġíĺĳëł¥": 2034,
      "Ġíķµìĭ¬": 2035,
      "ĠëĤĺê°Ģ": 2036,
      "ìĿ´íĦ°": 2037,
      "Ġì¹ĺë£Į": 2038,
      "ìľ¤": 2039,
      "ìĹĦ": 2040,
      "ĠëĪĦêµ¬": 2041,
      "Ġâĸ²": 2042,
      "ë¡ľë¶ĢíĦ°": 2043,
      "ĠìĺģìĹħ": 2044,
      "ĠëĤĺíĥĢëĤ¬": 2045,
      "Ġë°¤": 2046,
      "ĠíĨµíķ©": 2047,
      "ë¡ľìĦľ": 2048,
      "ìĬ¬": 2049,
      "Ġìĩ": 2050,
      "Ġì¤ĳìķĻ": 2051,
      "Ġ28": 2052,
      "Ģëĵľ": 2053,
      "Ġê¸°ëĬ¥": 2054,
      "¨ë¦¬": 2055,
      "ìłķë³´": 2056,
      "íļĮìĤ¬": 2057,
      "ìļ°ë¦¬": 2058,
      "âĪ¼": 2059,
      "ëĭ¥": 2060,
      "Ġêµ¬ì¡°": 2061,
      "ì£¼íĥĿ": 2062,
      "ĠìĮ": 2063,
      "ëł¤ëĬĶ": 2064,
      "ĠìĭľëĮĢ": 2065,
      "Ġë¶Ļ": 2066,
      "ĠìĽĢ": 2067,
      "ĠëĨĢ": 2068,
      "ìĸ´ëĤľ": 2069,
      "Ġì§Ģì§Ģ": 2070,
      "ĠìĨĮë¹ĦìŀĲ": 2071,
      "Ġíķľëĭ¤ëĬĶ": 2072,
      "ëıĻìĤ°": 2073,
      "ëĿ¼ìĿ´": 2074,
      "Ġì£¼ë³Ģ": 2075,
      "Ġì£¼íĥĿ": 2076,
      "ë³ĳìĽĲ": 2077,
      "ë³¸ë¶Ģ": 2078,
      "Ġì¶ľìĭł": 2079,
      "ê¼": 2080,
      "Ġì¹ľêµ¬": 2081,
      "ĠíĺĦìĭ¤": 2082,
      "Ġê³Ħìķ½": 2083,
      "ĠìŀĲëıĻì°¨": 2084,
      "ë¶Ħê¸°": 2085,
      "Ġë§Īì§Ģë§ī": 2086,
      "ë¬´ìĽĲ": 2087,
      "ì¹Ļ": 2088,
      "ìļ´ëıĻ": 2089,
      "Ġë°ĺë©´": 2090,
      "ĠìĻķ": 2091,
      "Ġìµľì´Ī": 2092,
      "ìĵ": 2093,
      "ìľĦìĽĲìŀ¥": 2094,
      "íıĲ": 2095,
      "Ġë¶ĦìľĦê¸°": 2096,
      "Ġìª½": 2097,
      "Ġìĸ´ëłµ": 2098,
      "Ġìĥ": 2099,
      "íļĮìŀ¥": 2100,
      "âĢĺ": 2101,
      "ì©": 2102,
      "Ġê±°ëŀĺ": 2103,
      "Ġê³µê°Ħ": 2104,
      "201": 2105,
      "Ġë¶Ģì¡±": 2106,
      "Ġë³¸ê²©": 2107,
      "Ġê²½ê¸°ëıĦ": 2108,
      "ìħĶ": 2109,
      "Ġë°ĶëĿ¼": 2110,
      "ìłķì±ħ": 2111,
      "ĠìĭľìĬ¤íħľ": 2112,
      "íľ´": 2113,
      "ì²Ļ": 2114,
      "Ġìĸ¸ë¡ł": 2115,
      "Ġìĸ´ëĶĶ": 2116,
      "ĠìĪĺìĿµ": 2117,
      "Ġëĭ¬ë¦¬": 2118,
      "ĠìĿ´ëģ": 2119,
      "ìĿ¸ê°Ģ": 2120,
      "ìĨĮëħĦ": 2121,
      "Ġë°©ì¹¨": 2122,
      "Ġì°¸ê°Ģ": 2123,
      "ĠìķĪìłķ": 2124,
      "Ġìłľì£¼": 2125,
      "ĠíĿĶ": 2126,
      "ĠëĤĺëĿ¼": 2127,
      "BS": 2128,
      "ĠëĨĴìĿ´": 2129,
      "ĠìłľëĮĢë¡ľ": 2130,
      "ĠíĻľìĦ±": 2131,
      "íĦ¸": 2132,
      "Ġê²ĢíĨł": 2133,
      "Ġíį¼": 2134,
      "ìķĦìķ¼": 2135,
      "íķ©ëĭĪëĭ¤": 2136,
      "Ġê±°ë¦¬": 2137,
      "Ġê°Ģê¹Į": 2138,
      "Ġìĭ¸": 2139,
      "Ġë°ĸ": 2140,
      "Ġì¡°ìĦł": 2141,
      "Ġì°¨ëŁī": 2142,
      "Ġê¹¨": 2143,
      "ĠâĹĨ": 2144,
      "Ġëĵ£": 2145,
      "Ġë°ĺìĺģ": 2146,
      "Ġ199": 2147,
      "Ġëħ¹": 2148,
      "ìĸ¼": 2149,
      "ĠìĿĺë£Į": 2150,
      "ëłĮ": 2151,
      "Ġê°ĳ": 2152,
      "Ġê°ģì¢ħ": 2153,
      "Ġìłľìĭľ": 2154,
      "ĠëĮĢìĭł": 2155,
      "Ġê¸°ë³¸": 2156,
      "íħĲ": 2157,
      "ĠìĪĺìļĶ": 2158,
      "ĠëıĻìĭľ": 2159,
      "ĠìłľëıĦ": 2160,
      "Ġê´": 2161,
      "ĠìľĦê¸°": 2162,
      "ë¹ł": 2163,
      "ĠìłĦìĭľ": 2164,
      "Ġê¹Ĭ": 2165,
      "Ġê°ľìłķ": 2166,
      "ĠëĮĢì±ħ": 2167,
      "ĠëĮĢíĺķ": 2168,
      "ëī´": 2169,
      "Ġì£¼ëª©": 2170,
      "ìĥĿíĻľ": 2171,
      "Ġì¡°ì¹ĺ": 2172,
      "Ġì¡°ì§ģ": 2173,
      "ëĭ¨ì§Ģ": 2174,
      "Ġë°ĶëŀĮ": 2175,
      "âĢĻ,": 2176,
      "Ġê³µê²©": 2177,
      "ĠíĻķìĤ°": 2178,
      "º¼": 2179,
      "ìĬ¤ëŁ¬": 2180,
      "ìĬ¤ëŁ½": 2181,
      "ë¦¬ê·¸": 2182,
      "Ġê²ª": 2183,
      "¢°": 2184,
      "ĠìĭľìĦ¤": 2185,
      "Ġìľłì¹ĺ": 2186,
      "ĠìĹ°ê¸°": 2187,
      "ĠìķĮëł¤ì¡Į": 2188,
      "Ġì´ī": 2189,
      "ìĤ¬ìŀ¥": 2190,
      "Ġì§Ģê¸ī": 2191,
      "Ġê°ĻìĿ´": 2192,
      "ê±°ëĵł": 2193,
      "ìĽĥ": 2194,
      "Ġê°Ģì¹ĺ": 2195,
      "ë¦Ń": 2196,
      "ĠìľłëŁ½": 2197,
      "Ġë¶Ħìĸĳ": 2198,
      "Ġì²ĺë¦¬": 2199,
      "ìĬ¤íģ¬": 2200,
      "Ġìŀĳê°Ģ": 2201,
      "Ġì±": 2202,
      "ê³Ħíļį": 2203,
      "ĠìĿĮìķħ": 2204,
      "ìŀĲìĿ¸": 2205,
      "ĠìķĦë²Ħì§Ģ": 2206,
      "ë¦°ëĭ¤": 2207,
      "ĠìľĦìĽĲìŀ¥": 2208,
      "ĠìĦ¸ìĥģ": 2209,
      "ĠëĬ¥": 2210,
      "Ġëį§": 2211,
      "ê¿": 2212,
      "ĠìĹ¬íĸī": 2213,
      "Ġìĺ¨ëĿ¼ìĿ¸": 2214,
      "Ġíķ©ìĿĺ": 2215,
      "ë¦¼íĶ½": 2216,
      "íķľëĭ¤ê³ł": 2217,
      "ĠF": 2218,
      "ëĶĶìĸ´": 2219,
      "ĠìĿ¼ìŀĲë¦¬": 2220,
      "Ġê²¬": 2221,
      "ĠëĦ£": 2222,
      "Ġìļ°ìĬ¹": 2223,
      "ĠìŀĶ": 2224,
      "Ġìļ¸ìĤ°": 2225,
      "ìĺ¥": 2226,
      "Ġíĩ´": 2227,
      "Ġë³´ëĤ´": 2228,
      "ĠE": 2229,
      "ë§¹": 2230,
      "Ġë¨¸ë¦¬": 2231,
      "ìĶĢ": 2232,
      "ë¢°": 2233,
      "Ġê²½ëĤ¨": 2234,
      "ĠíĳľíĺĦ": 2235,
      "ĠìŀĳìĹħ": 2236,
      "ê°ĳ": 2237,
      "Ġìļ´ëıĻ": 2238,
      "Ġíķ´ìĦľ": 2239,
      "ëª»": 2240,
      "ìĿ´ì§Ģ": 2241,
      "ëĿ¼ë§Ī": 2242,
      "ëĪĦë¦¬": 2243,
      "íı¬ì¸ł": 2244,
      "Ġ29": 2245,
      "ĠìĿ¸ìłľ": 2246,
      "ĠìĽĢì§ģ": 2247,
      "ĠìĪĺëıĦ": 2248,
      "ì¢Į": 2249,
      "ĠìĿ¼ìłķ": 2250,
      "Ġëĵ¤ìĸ´ê°Ģ": 2251,
      "Ġìµľì¢ħ": 2252,
      "Ġíĺģìĭł": 2253,
      "ìĺĪìļĶ": 2254,
      "ì§Ŀ": 2255,
      "ĠìĤ¬ë¬´": 2256,
      "ë³µì§Ģ": 2257,
      "Ġì²ŃëħĦ": 2258,
      "ĠëĺĲëĬĶ": 2259,
      "ê±´ìĦ¤": 2260,
      "ë°ľìłĦ": 2261,
      "ĠìłĦíĻĶ": 2262,
      "®¤": 2263,
      "Ġë§ĲìĶĢ": 2264,
      "Ġì§Ħì¶ľ": 2265,
      "ĠìľĦíĹĺ": 2266,
      "ì¦ĺ": 2267,
      "ĠíĿĲ": 2268,
      "íķĻìĥĿ": 2269,
      "ë¨¸ëĭĪ": 2270,
      "ĠìĤ¬ë¡Ģ": 2271,
      "ê³¤": 2272,
      "Ġìļ°ìĪĺ": 2273,
      "ĠìĦľë¡ľ": 2274,
      "ĠìľĦì¹ĺ": 2275,
      "ĠíĹ¤": 2276,
      "Ġì§Ģìłķ": 2277,
      "ĠìłĦê¸°": 2278,
      "Ġë°ĶìĿ´": 2279,
      "ĠìĿ¸ìĥģ": 2280,
      "ĠìĿĺíĺ¹": 2281,
      "ĠìĪĻ": 2282,
      "ĠêµĲíĨµ": 2283,
      "ìĦ¸ê³Ħ": 2284,
      "ëįĶëĿ¼ëıĦ": 2285,
      "Ġê¸°ê´Ģ": 2286,
      "ĠìĨĮê°ľ": 2287,
      "ìĦ¸ëĮĢ": 2288,
      "Ġê¸°ë°ĺ": 2289,
      "Ġë¯¿": 2290,
      "Ġ60": 2291,
      "ĠìĿ¸ê°Ħ": 2292,
      "Ġë´Ĳ": 2293,
      "25": 2294,
      "Ġì¦ī": 2295,
      "ĠìĿĢíĸī": 2296,
      "íĻį": 2297,
      "Ġê³µìĭĿ": 2298,
      "Ġëª¨ëį¸": 2299,
      "ìĬ¤ë¡ľ": 2300,
      "Ġì»¨": 2301,
      "ìĦłê±°": 2302,
      "Ġë¹Ħíķ´": 2303,
      "Ġëį§ë¶Ļ": 2304,
      "ëŁ´": 2305,
      "ĠD": 2306,
      "Ġë§Įëĵł": 2307,
      "ëª°": 2308,
      "ĠíļĮìĿĺ": 2309,
      "ê·ľëª¨": 2310,
      "ĠëĤĻ": 2311,
      "18": 2312,
      "Ġê³¼ê±°": 2313,
      "ìĦŃ": 2314,
      "ĠìĿĺìĤ¬": 2315,
      "ë§Įíģ¼": 2316,
      "Ġíķ´ëıĦ": 2317,
      "ĠìĹ¬ë¶Ģ": 2318,
      "Ġë²Ĺ": 2319,
      "Ġê³łìļ©": 2320,
      "Ġì§ķ": 2321,
      "Ġê²ĢìĤ¬": 2322,
      "ë³´íĹĺ": 2323,
      "Ġëª»íķľ": 2324,
      "Ġìŀ¥ê¸°": 2325,
      "Ġë³ĳìĽĲ": 2326,
      "ĠìĿ½": 2327,
      "ĠìłĬ": 2328,
      "Ġì§ĢëıĦ": 2329,
      "Ġë¶ĢëıĻìĤ°": 2330,
      "Ġë¬´ìĬ¨": 2331,
      "¨¸": 2332,
      "ĠëĮĢìłĦ": 2333,
      "Ġìĸ´ë¨¸": 2334,
      "ĠíĮ¬": 2335,
      "ë¦¬ìĬ¤": 2336,
      "Ġì²´íĹĺ": 2337,
      "ê°Ģêµ¬": 2338,
      "ĠìłĦëĭ¬": 2339,
      "Ġìłķìĭł": 2340,
      "ìķĦìĦľ": 2341,
      "ĠìķĶ": 2342,
      "ë°ĶìĿ´": 2343,
      "ĠìĦ¤ë¦½": 2344,
      "ĠìĿ´ëıĻ": 2345,
      "ĠìĨĮìĨį": 2346,
      "Ġíĺľ": 2347,
      "ĠìĦ±ê³¼": 2348,
      "ëĮĢíķĻ": 2349,
      "ëłĢ": 2350,
      "ĠíĿ¬ë§Ŀ": 2351,
      "ĠëĤĺëĪ": 2352,
      "ĠìĿĮìĭĿ": 2353,
      "ĠêµŃìłķ": 2354,
      "Ġë§ĪìĿĦ": 2355,
      "Ġê°ĲìĹ¼": 2356,
      "ĠìļĶì²Ń": 2357,
      "íľĺ": 2358,
      "íĶĪ": 2359,
      "Ġê³§": 2360,
      "ĠëĮĢìĦł": 2361,
      "ĠìĿ´ëŁ¬": 2362,
      "íķľíħĮ": 2363,
      "íĺĳíļĮ": 2364,
      "ìĬĪ": 2365,
      "ĠìłĦíĻĺ": 2366,
      "ï¼": 2367,
      "ë¯¼êµŃ": 2368,
      "Ġê³µìĤ¬": 2369,
      "ĠíķĺëĿ½": 2370,
      "Ġìķī": 2371,
      "Ġê·ľìłľ": 2372,
      "Ġì¢ħíķ©": 2373,
      "Ġë°ľê²¬": 2374,
      "Ġìºł": 2375,
      "Ġê¸°íļį": 2376,
      "ì¼°": 2377,
      "Ġë³´íĺ¸": 2378,
      "ĠìĦłë°ľ": 2379,
      "Ġë¬´ëĮĢ": 2380,
      "Ġíĸīë³µ": 2381,
      "Ġë¯¼ê°Ħ": 2382,
      "Ġê²ĮìŀĦ": 2383,
      "Ġì¶ľìĹ°": 2384,
      "ãĢį": 2385,
      "ĠëŁ¬": 2386,
      "Ġê³łë¯¼": 2387,
      "Ġê¼½": 2388,
      "Ġê°Ģìŀħ": 2389,
      "Ġë¬»": 2390,
      "ì¹Ń": 2391,
      "ĠìłľìĻ¸": 2392,
      "15": 2393,
      "ĠìĤ¬íĥľ": 2394,
      "ĠìĪľê°Ħ": 2395,
      "ìĩ¼": 2396,
      "ì¹´ëĵľ": 2397,
      "ĠìĿ´ë¥´": 2398,
      "Ġë¹ĦêµĲ": 2399,
      "ëĶ°": 2400,
      "ìļ´ëĵľ": 2401,
      "ĠëĤĺìĦľ": 2402,
      "Ġì¶©ë¶Ħ": 2403,
      "ĠìĽĮ": 2404,
      "ë¹Ī": 2405,
      "ĠìĿ´ê²Į": 2406,
      "ê´Ģê³Ħ": 2407,
      "Ġìŀĩ": 2408,
      "ê·¼íĺľ": 2409,
      "ĠìĤ¼ìĦ±ìłĦìŀĲ": 2410,
      "Ġëį§ë¶ĻìĺĢ": 2411,
      "ĠíĻķì§Ħ": 2412,
      "Ġìŀ¬íĮĲ": 2413,
      "ì¦Ŀê¶Į": 2414,
      "Ġì¢Į": 2415,
      "ĠíĨµíķľ": 2416,
      "Ġê·¼ëį°": 2417,
      "ĠëħĦ": 2418,
      "íĤ¹": 2419,
      "ì¯": 2420,
      "Ġìĭłê·ľ": 2421,
      "ĠìĦłìĥĿ": 2422,
      "er": 2423,
      "ëŀ«": 2424,
      "ĠëĤ´ëĨĵ": 2425,
      "ĠN": 2426,
      "ìķķ": 2427,
      "ĠìĹħê³Ħ": 2428,
      "ĩĮ": 2429,
      "ĠìĬ¤ìĬ¤ë¡ľ": 2430,
      "ĠìĹĦë§Ī": 2431,
      "Ġê·¸ëķĮ": 2432,
      "Ġê·¸ëĮĢë¡ľ": 2433,
      "ê±°ëĵłìļĶ": 2434,
      "Ġì¤ĳìĨĮê¸°ìĹħ": 2435,
      "±ìłķ": 2436,
      "ĠëĤ´ë¶Ģ": 2437,
      "Ġì§Īë¬¸": 2438,
      "ĠëĮĢì¶ľ": 2439,
      "Ġê±°ìĿĺ": 2440,
      "ĠìłĦíĨµ": 2441,
      "Ġì£¼ìĿ¸": 2442,
      "íŀĪëł¤": 2443,
      "Ġê²°íĺ¼": 2444,
      "ĠìĻ¸êµŃìĿ¸": 2445,
      "Ġê¸°ìĸµ": 2446,
      "ìĬ´": 2447,
      "ĠíĽĪ": 2448,
      "Ġìĸ´ë¦°ìĿ´": 2449,
      "Ġê¸°ëĭ¤": 2450,
      "Ġêµ¬ë§¤": 2451,
      "Ġìĸ´ëł¤ìļ´": 2452,
      "íĺ¸ìĤ¬": 2453,
      "Ġë¹Ħìļ©": 2454,
      "ĠìĿ¸íķ´": 2455,
      "ëĶ©": 2456,
      "ĠìķĦëĵ¤": 2457,
      "ìķĦëĵ¤": 2458,
      "ê±°ëŀĺ": 2459,
      "ì´ī": 2460,
      "ĠìŀĲë£Į": 2461,
      "ê³łìĦľ": 2462,
      "íıīê°Ģ": 2463,
      "âĢĻ(": 2464,
      "ë¹Ľ": 2465,
      "Ġëĭ¤ë§Į": 2466,
      "Ġì¡´ìŀ¬": 2467,
      "ĠìĿ¸íĦ°ëĦ·": 2468,
      "Ģë¡ľ": 2469,
      "ê³µìĽĲ": 2470,
      "Ġìĺģìĥģ": 2471,
      "Ġì§Ģì¼ľ": 2472,
      "Ġì´Ŀë¦¬": 2473,
      "ìĦľë¹ĦìĬ¤": 2474,
      "ĠìķĦìĭľìķĦ": 2475,
      "11": 2476,
      "ĠìĹ°ê²°": 2477,
      "Ġê³µìłķ": 2478,
      "in": 2479,
      "ìĸ´ëĵ¤": 2480,
      "ëŁ¼íĶĦ": 2481,
      "ĠëįĶë¶Ī": 2482,
      "Ġë£": 2483,
      "ê°Ĵ": 2484,
      "Ġë³´íĹĺ": 2485,
      "ìĬ¤ì½Ķ": 2486,
      "íħĲì¸ł": 2487,
      "ĠãĢĮ": 2488,
      "ë·°": 2489,
      "ĠíĹĮ": 2490,
      "Ġë³´ìľł": 2491,
      "ĠíĻįë³´": 2492,
      "Ġìĺ¤íŀĪëł¤": 2493,
      "ĠìĬ¬": 2494,
      "Ġë½": 2495,
      "Ġì£¼ìłľ": 2496,
      "Ġê±°ì³Ĳ": 2497,
      "ëĭĿ": 2498,
      "Ġì°¬": 2499,
      "ĠìĪł": 2500,
      "Ġë¶Īê³¼": 2501,
      "Ġê·¸ëĥ¥": 2502,
      "ĠìĿ´ëģĮ": 2503,
      "ĠìĬ¹ë¦¬": 2504,
      "Ġë¥": 2505,
      "íķ´ì¡Į": 2506,
      "Ġíŀĺëĵ¤": 2507,
      "ĠìķĦì£¼": 2508,
      "ĠìłľìķĪ": 2509,
      "íĨµìĭł": 2510,
      "ĠìĪĺìĥģ": 2511,
      "ĠìĹ´ë¦¬": 2512,
      "ĠëĶĶìŀĲìĿ¸": 2513,
      "Ġëħ¸ëŀĺ": 2514,
      "ĠìĿ¸ê·¼": 2515,
      "Ġê±±ìłķ": 2516,
      "Ġ70": 2517,
      "ĠëĤĺìĦ°": 2518,
      "Ġìĺ¤ë¥¸": 2519,
      "ìĬµëĭĪê¹Į": 2520,
      "Ġíĸ¥íĽĦ": 2521,
      "íķµ": 2522,
      "ĠìĹ°ìĨį": 2523,
      "Ġê¼Ń": 2524,
      "ëįĶëĭĪ": 2525,
      "Ġë¹¼": 2526,
      "Ġíĭ°": 2527,
      "ì¯¤": 2528,
      "ĠìĿ´ë£¨": 2529,
      "ëł´": 2530,
      "ĠëĮĢíĻĶ": 2531,
      "ĠìĺģêµŃ": 2532,
      "Ġì¡¸": 2533,
      "ìĿ´ìĿµ": 2534,
      "Ġë°©íĸ¥": 2535,
      "Ġë¹Ī": 2536,
      "Ġìĸ´ë¨¸ëĭĪ": 2537,
      "ĠìµľìĨĮ": 2538,
      "Ġì°¨ìĿ´": 2539,
      "BC": 2540,
      "Ġëĭ¨ì²´": 2541,
      "Ġìĭľì²Ń": 2542,
      "ĠíļĮë³µ": 2543,
      "ĠëĤĺìĺ¨ëĭ¤": 2544,
      "Ġìłľì¶ľ": 2545,
      "ĠìĪĺìŀħ": 2546,
      "ĠíĿĺ": 2547,
      "ìĥ": 2548,
      "ĠìķŀëĳĲ": 2549,
      "12": 2550,
      "Ġì¤ĳëĭ¨": 2551,
      "ĠëĤ©": 2552,
      "Ġë¶Īë²ķ": 2553,
      "ĠìĨĮìŀ¬": 2554,
      "ìĸ´ëıĦ": 2555,
      "ìľ¼ëĭĪ": 2556,
      "ëĸ": 2557,
      "ĠëģĬ": 2558,
      "ìŀĲê¸°": 2559,
      "Ġë§¤ìļ°": 2560,
      "ìĿ´ë²Ī": 2561,
      "íĶĦë¡ľ": 2562,
      "ĠíĶ¼ë¶Ģ": 2563,
      "Ġë§Īì¹ĺ": 2564,
      "ë¬´ë¦¬": 2565,
      "Ġìĭ¤ìłģ": 2566,
      "ĠíĿ¥": 2567,
      "ĠíĻķìłķ": 2568,
      "%),": 2569,
      "ĠìĹĶ": 2570,
      "ìĹ°íķ©": 2571,
      "Ġëĭ¹ìĭł": 2572,
      "ê³łìŀĲ": 2573,
      "Ġìĸ¸ìłľ": 2574,
      "Ġë¹Į": 2575,
      "Ġëįķ": 2576,
      "Ġê¶ģ": 2577,
      "ë´¤": 2578,
      "ëĬĶê°Ģ": 2579,
      "ĠìŀĲê¸Ī": 2580,
      "Ġê°Ģì§Ħ": 2581,
      "íĤ¬": 2582,
      "Ġíĺ¹": 2583,
      "ĠìĹ¬ìłĦíŀĪ": 2584,
      "Ġëķħ": 2585,
      "ĠëĶ¸": 2586,
      "Ġì·¨ìĹħ": 2587,
      "ì»µ": 2588,
      "ë¨¹": 2589,
      "ìĭ¸": 2590,
      "íĸĪìľ¼ë©°": 2591,
      "Ġê±´ë¬¼": 2592,
      "ìĭľë¯¼": 2593,
      "ĠìĹĲëĦĪì§Ģ": 2594,
      "ĠìĿ´ê³³": 2595,
      "Ġìĭľê¸°": 2596,
      "ìĬ¤íĦ°": 2597,
      "ì¶¤": 2598,
      "ìľ¼ë¡ľìĦľ": 2599,
      "on": 2600,
      "íķĻëħĦ": 2601,
      "ĠìĤ¬ìłĦ": 2602,
      "ëłĪìĬ¤": 2603,
      "ëł¤ë©´": 2604,
      "ĠìŀĳëħĦ": 2605,
      "īìŀ¥": 2606,
      "Ġìľłëªħ": 2607,
      "ê³µíķŃ": 2608,
      "ĠìĹ¼": 2609,
      "Ġìŀ¥ìķł": 2610,
      "ëĢ": 2611,
      "ì¿ł": 2612,
      "Ġì£¼ìĭĿ": 2613,
      "ìķŀ": 2614,
      "Ġì¡°ìłķ": 2615,
      "ĠíĨµê³¼": 2616,
      "Ġìŀĥ": 2617,
      "Ġë°ĺìĿĳ": 2618,
      "âĢľ": 2619,
      "200": 2620,
      "40": 2621,
      "ĠìłĦëħĦ": 2622,
      "ì§Ģêµ¬": 2623,
      "Ġì§Ģíķĺ": 2624,
      "êµŃë¯¼": 2625,
      "íĻĢ": 2626,
      "ê²½ì°°": 2627,
      "Ġë¶Ģëª¨": 2628,
      "Ġê²½ë¶ģ": 2629,
      "Ġë§Ŀ": 2630,
      "..": 2631,
      "ìĭľì¼ľ": 2632,
      "ìķĦê°Ģ": 2633,
      "Ġê¸°ëħĲ": 2634,
      "ĠíĮĮìķħ": 2635,
      "Ġìĸ¼ë§ĪëĤĺ": 2636,
      "ìĨĮëĵĿ": 2637,
      "Ġìĥī": 2638,
      "Ġìĺ¬ëŀĲ": 2639,
      "ĠìĺĨ": 2640,
      "Ġê³µë¬´ìĽĲ": 2641,
      "Ġê·ľìłķ": 2642,
      "Ġêµ¬ì²´": 2643,
      "ìķĮ": 2644,
      "ê¸°ê°Ħ": 2645,
      "ìłĿ": 2646,
      "Ġìłľíķľ": 2647,
      "Ġê²ģ": 2648,
      "ĠìĤ¬ë§Ŀ": 2649,
      "ĠìĿ¸ìĭĿ": 2650,
      "Ġì°¨ë¡Ģ": 2651,
      "Ġë³´ëĭ¤": 2652,
      "¬ìĺģ": 2653,
      "Ġê³¼íķĻ": 2654,
      "Ġëĭ´ëĭ¹": 2655,
      "ĠíĪ¬ìŀħ": 2656,
      "Ġëĵ±ìŀ¥": 2657,
      "ìĬ·": 2658,
      "ĠìłĦíĺĢ": 2659,
      "Ġë¶Ģë¬¸": 2660,
      "Ġìŀĺëª»": 2661,
      "Ġëĭ¨ê³Ħ": 2662,
      "Ġë°ľìĸ¸": 2663,
      "Ġì°į": 2664,
      "ĠìħĪ": 2665,
      "Ġìĺ®": 2666,
      "60": 2667,
      "ĠëĤĺìĦł": 2668,
      "ĠìĨĶ": 2669,
      "Ġë¶Ħëªħ": 2670,
      "ĠëĬĲëĤĮ": 2671,
      "ĠìĦ¼": 2672,
      "ìĽ¨": 2673,
      "ĠìĦľìļ¸ìĭľ": 2674,
      "Ġ2012": 2675,
      "ì½ĺ": 2676,
      "ë´Ĳ": 2677,
      "Ġìĩ¼": 2678,
      "Ġê°ķìĽĲ": 2679,
      "ìľ¼ë©´ìĦľ": 2680,
      "ì§ĵ": 2681,
      "ìĪĺë¡Ŀ": 2682,
      "Ġê·¸ëıĻìķĪ": 2683,
      "Ġëŀ": 2684,
      "Ġê³µìŀ¥": 2685,
      "ĠëĵľëĿ¼ë§Ī": 2686,
      "ì§ĢìĤ¬": 2687,
      "Ġê²½ìŁģëł¥": 2688,
      "Ġë³µì§Ģ": 2689,
      "Ġ2010": 2690,
      "ĠëĤ¨ìĦ±": 2691,
      "Ġë°ĶëĢ": 2692,
      "ë§ĪìĿĦ": 2693,
      "ë¦¿": 2694,
      "Ġëĵ±ë¡Ŀ": 2695,
      "80": 2696,
      "ĠìĦ±ìłģ": 2697,
      "ìŀĲì²´": 2698,
      "Ġëľ¨": 2699,
      "Ġ2015": 2700,
      "ìĦľìļ¸": 2701,
      "ĠëıĦë¡ľ": 2702,
      "ĠìıŁ": 2703,
      "ĠìĺĪìĪł": 2704,
      "ĠTV": 2705,
      "ê³¼ìłķ": 2706,
      "21": 2707,
      "Ġê´Ģíķľ": 2708,
      "ĠìĿ´ëĭ¬": 2709,
      "ìłĿíĬ¸": 2710,
      "ëĮĢì±ħ": 2711,
      "Ġëĭ¨ì§Ģ": 2712,
      "Ġê³µë¶Ģ": 2713,
      "ĠìĭľìłĪ": 2714,
      "ĠìĺĪë°©": 2715,
      "ëŀĳìĬ¤": 2716,
      "ĠëıħìĿ¼": 2717,
      "ĠëĬ¥ëł¥": 2718,
      "Ġ31": 2719,
      "ìī¬": 2720,
      "Ġì°½ìĹħ": 2721,
      "Ġì½ĶìĬ¤": 2722,
      "ĠìłĦëĤ¨": 2723,
      "ìĭ±": 2724,
      "ìķĦìĿ´": 2725,
      "ĠìĤ¬ëĿ¼": 2726,
      "ĠìĬ¤ë§ĪíĬ¸íı°": 2727,
      "ìĩĦ": 2728,
      "Ġë¹ĦìĬ·": 2729,
      "êµĲíĨµ": 2730,
      "ìĸ´ì§Ģ": 2731,
      "Ġì°¨ìĽĲ": 2732,
      "ìĹĲìļĶ": 2733,
      "ìĿ´ìħĺ": 2734,
      "ì§ĢìļĶ": 2735,
      "ĠíĺĦì§Ģ": 2736,
      "ĠíĥĿ": 2737,
      "Ġê·¼ë¬´": 2738,
      "íĺĪ": 2739,
      "Ġ2014": 2740,
      "ĠëĤ¨ë¶ģ": 2741,
      "ê°ĢëĬ¥": 2742,
      "ĠíĬ¸ëŁ¼íĶĦ": 2743,
      "Ġì§ĵ": 2744,
      "Ġëĭ¤ê°Ģ": 2745,
      "Ġìŀ¬ìłķ": 2746,
      "Ġêµīìŀ¥": 2747,
      "Ġëļ": 2748,
      "ĠíļĮìĽĲ": 2749,
      "ì¼ĵ": 2750,
      "Ġë¹Ľ": 2751,
      "Ġë©Ģ": 2752,
      "Ġã": 2753,
      "Ġëĭ¤ë¥´": 2754,
      "ë¥¸ëĭ¤": 2755,
      "Ġê·¸ëŁ¼": 2756,
      "Ġì¿": 2757,
      "ĠìłķíĻķ": 2758,
      "ĠìĽĲìĿ¸": 2759,
      "Ġë¹Ħì¤ĳ": 2760,
      "ìĤ¬ê³ł": 2761,
      "ĠíĺĳìĿĺ": 2762,
      "ë°ĶìĿ¼": 2763,
      "ĠìľłíĨµ": 2764,
      "ĠìĹ¬ë¡ł": 2765,
      "Ġë§Īë¬´ë¦¬": 2766,
      "ìķĪìłĦ": 2767,
      "Ġìķ½ìĨį": 2768,
      "ëĳĶ": 2769,
      "ëıĪ": 2770,
      "Ġê°Ģìłķ": 2771,
      "Ġìĭłê³ł": 2772,
      "ĠìĽĲëĤ´": 2773,
      "Ġìłľì¡°": 2774,
      "ĠëĮĢíķľë¯¼êµŃ": 2775,
      "íİĺìĿ¸": 2776,
      "ĠìķĦë¦Ħ": 2777,
      "ìĵ°": 2778,
      "Ġê°Ķ": 2779,
      "ĠìĦ¬": 2780,
      "Ġê°Ģìł¸": 2781,
      "ê³łìļĶ": 2782,
      "ĠìĦłë¬¼": 2783,
      "ì»¬": 2784,
      "ìĦľê´Ģ": 2785,
      "Ġëĥī": 2786,
      "ìłľíĴĪ": 2787,
      "ĠíĶĦë¦¬": 2788,
      "ê°ĻìĿ´": 2789,
      "Ġë¬¸ìŀ¬": 2790,
      "ëŀĻ": 2791,
      "ãİŀ": 2792,
      "ĠëĬ¦": 2793,
      "Ġê³Ħê¸°": 2794,
      "ĠìĪĺìĽĲ": 2795,
      "Ġë´¤": 2796,
      "ĠíĺľíĥĿ": 2797,
      "Ġê½ĥ": 2798,
      "ë²¤íĬ¸": 2799,
      "ĠìĿ¼ëĭ¨": 2800,
      "Ġê°Īëĵ±": 2801,
      "Ġíķ©ëĭĪëĭ¤": 2802,
      "Ġê°ĢìĬ´": 2803,
      "Ġì£¼ëıĦ": 2804,
      "ìĹ°êµ¬ìĽĲ": 2805,
      "ì²´ìľ¡": 2806,
      "Ġëĭ¹ìĦł": 2807,
      "íİĺìĿ´ì§Ģ": 2808,
      "Ġê·¸ë£¹": 2809,
      "Ġìī¬": 2810,
      "ëĶĶìĺ¤": 2811,
      "ìĺĪìĪł": 2812,
      "ĠâĹĩ": 2813,
      "Ġë°ķê·¼íĺľ": 2814,
      "ĠìĿµ": 2815,
      "Ġê·¼ë¡ľ": 2816,
      "íı¼": 2817,
      "an": 2818,
      "Ġíĳ¸": 2819,
      "ĠìĮĵ": 2820,
      "ë¯¼ì£¼ëĭ¹": 2821,
      "ĠìłĪì°¨": 2822,
      "ĠìĿ¸ë¬¼": 2823,
      "22": 2824,
      "Ġìĸ´ëł¤ìĽĢ": 2825,
      "ĠêµŃíĨł": 2826,
      "íı¬ìĿ¸íĬ¸": 2827,
      "Ġë§Įëĵľ": 2828,
      "Ġìŀħì£¼": 2829,
      "ĠìĹ¬ë¦Ħ": 2830,
      "Ġíĺķíĥľ": 2831,
      "ĠìĿ¸ëıĦ": 2832,
      "Ġë°Ķíĥķ": 2833,
      "ìľ¼ë¡ľë¶ĢíĦ°": 2834,
      "Ġêµīìŀ¥íŀĪ": 2835,
      "Ġ2011": 2836,
      "ëŁŃ": 2837,
      "ĠëĦĵ": 2838,
      "ê¶ģ": 2839,
      "ĠêµĲìĤ¬": 2840,
      "Ġê·¸ë¦¼": 2841,
      "ĠìĨĮíĨµ": 2842,
      "Ġëįĺ": 2843,
      "ĠìŀĲìĦ¸": 2844,
      "ĠìķĦëŀĺ": 2845,
      "ìŀĲê¸Ī": 2846,
      "Ġìĭ¤ìłľë¡ľ": 2847,
      "ìľ¼ë¡ľìį¨": 2848,
      "ìŀĸìķĦìļĶ": 2849,
      "Ġëħ¸ìĿ¸": 2850,
      "ĠëĤĺìĻĢ": 2851,
      "Ġê°ķëł¥": 2852,
      "ĠëĦĺìĸ´": 2853,
      "ĠëĤĺìĿ´": 2854,
      "ê³¼íķĻ": 2855,
      "ĠìĨĮìĭĿ": 2856,
      "ê´Ģê´ĳ": 2857,
      "Ġìĺ¤ë¥´": 2858,
      "Â´": 2859,
      "ĠíĸīëıĻ": 2860,
      "¾Į": 2861,
      "ì§Ģë°©": 2862,
      "ĠëĳĺëŁ¬": 2863,
      "ëıĦë¡ľ": 2864,
      "Ġë¶ĪìķĪ": 2865,
      "ĠìĭľëıĦ": 2866,
      "ĠìĻ¸êµĲ": 2867,
      "Ġëª©ìłģ": 2868,
      "ëħ¸ëıĻ": 2869,
      "Ġìĺ¬ë¦¬": 2870,
      "êµŃìłľ": 2871,
      "ì¼ĢíĮħ": 2872,
      "ĠìĨįëıĦ": 2873,
      "Ġê±°ê¸°": 2874,
      "ĠìĿ¸ìĪĺ": 2875,
      "Ġë¿": 2876,
      "íķŃê³µ": 2877,
      "Ġ2013": 2878,
      "ĠìĿ´ê²ĥ": 2879,
      "ĠìľĦë°ĺ": 2880,
      "Ġ2008": 2881,
      "Ġë§¤ëħĦ": 2882,
      "ĠìĹ°ê³Ħ": 2883,
      "ëĭ¨ê³Ħ": 2884,
      "Ġíİ¼ì³Ĳ": 2885,
      "ĠëĸłëĤĺ": 2886,
      "Ġì²´ê²°": 2887,
      "ĠìĭľíĹĺ": 2888,
      "Ġ80": 2889,
      "ìŀ¬ëĭ¨": 2890,
      "Ġ2009": 2891,
      "ĠíĽĪëł¨": 2892,
      "Ġ1000": 2893,
      "ì°Į": 2894,
      "Ġì´¬ìĺģ": 2895,
      "Ġëĭ¬ëŁ¬": 2896,
      "Ġêº¼": 2897,
      "Ġ2000": 2898,
      "Ġìļķ": 2899,
      "Ġìľ¡ìĦ±": 2900,
      "ëĤĺë¬´": 2901,
      "Ġê¸°ì´Ī": 2902,
      "ìłķì¹ĺ": 2903,
      "Ġìĸµ": 2904,
      "ĠíķłìĿ¸": 2905,
      "ĠìĨĮëĵĿ": 2906,
      "Ġë¶Ģìłķ": 2907,
      "ĠìĬĪ": 2908,
      "Ġì¹´ëĵľ": 2909,
      "Ġíĺĳìĥģ": 2910,
      "ìĦ±ìŀ¥": 2911,
      "24": 2912,
      "Ġì½ĺíħĲì¸ł": 2913,
      "70": 2914,
      "Ġíķľëĭ¤ê³ł": 2915,
      "íĻĶìłĲ": 2916,
      "ĠìłĦìŀĲ": 2917,
      "Ġì²ŃìĨĮëħĦ": 2918,
      "ĠKT": 2919,
      "Ġëª¨ìĸĳ": 2920,
      "Ġëĭ¬ìĦ±": 2921,
      "Ġê·¸ê²Į": 2922,
      "ë§¨": 2923,
      "ĠìĿ¸êµ¬": 2924,
      "13": 2925,
      "ĠíĪ¬íĳľ": 2926,
      "Ġë¹Ħìľ¨": 2927,
      "ìĬ¤ëŁ¬ìļ´": 2928,
      "ĠíıīíĻĶ": 2929,
      "ĠíĶĦë¡ľìłĿíĬ¸": 2930,
      "Ġê³łê°ľ": 2931,
      "ì¡°ìłķ": 2932,
      "ëĭĪìĬ¤": 2933,
      "ĠìĿ¸íķľ": 2934,
      "Ġëģ¼": 2935,
      "ìłĦë¬¸": 2936,
      "ìĦłìĪĺ": 2937,
      "Ġë³´ìĪĺ": 2938,
      "Ġê´ĳê³ł": 2939,
      "Ġê¸°ìĤ¬": 2940,
      "ĠëĳĶ": 2941,
      "ĠëĤ¨íİ¸": 2942,
      "Ġë½ĳ": 2943,
      "ë°©ìĨ¡": 2944,
      "ìŀĲìĽĲ": 2945,
      "ĠìķĦë§Ī": 2946,
      "ĠìłĦìļ©": 2947,
      "Ġìĺ¤ëŀĺ": 2948,
      "ĠëĬĲëģ¼": 2949,
      "ĠíĶĦëŀĳìĬ¤": 2950,
      "Ġëħ¸ì¡°": 2951,
      "TV": 2952,
      "Ġëĭ¬ëĿ¼": 2953,
      "ĠëıĦìłĦ": 2954,
      "Ġë°ĶëĿ¼ë³´": 2955,
      "ĠíĻĪíİĺìĿ´ì§Ģ": 2956,
      "Ġì±Ħìļ©": 2957,
      "Ġìĸ¸ê¸ī": 2958,
      "or": 2959,
      "ìĿ´ëĵľ": 2960,
      "ì»¨": 2961,
      "ì§ģìĽĲ": 2962,
      "Ġìłķëĭ¹": 2963,
      "ĠíĭĢ": 2964,
      "Ġ2016": 2965,
      "Ġìĭ¬ê°ģ": 2966,
      "ë¶Ģëª¨": 2967,
      "ĠìĬ¤íı¬ì¸ł": 2968,
      "Ġ2018": 2969,
      "Ġê¹Ģìłķ": 2970,
      "Ġë³Ģíĺ¸ìĤ¬": 2971,
      "ëĤ©": 2972,
      "Ġìłķê¶Į": 2973,
      "ëĭ¤ìļ´": 2974,
      "Ġì°½ì¶ľ": 2975,
      "ì§Ĳ": 2976,
      "ìĹĺ": 2977,
      "ĠíĨłë¡ł": 2978,
      "Ġì³": 2979,
      "ĠëŁ¬ìĭľìķĦ": 2980,
      "Ġìĺ·": 2981,
      "ì¤Ģëĭ¤": 2982,
      "ìĿ´íģ¬": 2983,
      "ê²½ìĺģ": 2984,
      "ì¤¬": 2985,
      "ìĦ¯": 2986,
      "Ġë¶ĢìĿ¸": 2987,
      "ìļĶìĿ¼": 2988,
      "ì§ĢíĦ¸": 2989,
      "êµ¬ëĤĺ": 2990,
      "Ġì´ĿìĦł": 2991,
      "ì¤ĳìķĻ": 2992,
      "Ġì§ĢíĤ¤": 2993,
      "ìłł": 2994,
      "Ġìĭ¬ìĤ¬": 2995,
      "íĳ¸": 2996,
      "ìĶ¬": 2997,
      "Ġë£¨": 2998,
      "ìĭľìĬ¤íħľ": 2999,
      "Ġë³¸ìĿ¸": 3000,
      "ĠìłĦìŁģ": 3001,
      "ĠìŀĦëĮĢ": 3002,
      "Įë¦¬": 3003,
      "Ġë§¥": 3004,
      "Ġ2017": 3005,
      "ìĹħê³Ħ": 3006,
      "ìĥģíĴĪ": 3007,
      "íĶĦëĿ¼": 3008,
      "ëŀĢëĭ¤": 3009,
      "Ġê·¸ëŁ¬ëĭĪê¹Į": 3010,
      "ìŀĲì¹ĺ": 3011,
      "êµ¬ìĹŃ": 3012,
      "ëĦ¤ìļĶ": 3013,
      "ëĵľìĭľ": 3014,
      "ĠìĭŃ": 3015,
      "ĠëĴ·": 3016,
      "ë²ĦìĬ¤": 3017,
      "Ġë§ŀì¶°": 3018,
      "ĠíĸīìľĦ": 3019,
      "Ġì¹¼": 3020,
      "ëĭ¤ë©°": 3021,
      "Ġê¾¸ì¤Ģ": 3022,
      "ìĤ°ë¬¼": 3023,
      "ĠìĿ¸ëł¥": 3024,
      "ê¹¨": 3025,
      "ĠìĿ´ë¯¸ì§Ģ": 3026,
      "Ġì¡¸ìĹħ": 3027,
      "ĠìĹ°ìŀ¥": 3028,
      "Ġìĺģìĸ´": 3029,
      "íĮĶ": 3030,
      "ê¸Īë¦¬": 3031,
      "ĠìķĦëĤ´": 3032,
      "Ġë°ĽìķĦëĵ¤": 3033,
      "Ġê¸Īë¦¬": 3034,
      "Ġíľĺ": 3035,
      "ĠìĿ´ìĸ´ì§Ģ": 3036,
      "Ġê²¨ìļ¸": 3037,
      "Ġìĺ¥": 3038,
      "16": 3039,
      "Ġê³µìľł": 3040,
      "ëĤ¼": 3041,
      "',": 3042,
      "Ġëĭ¨ìĪľ": 3043,
      "ĠìĿ´ê±°": 3044,
      "ìłľëıĦ": 3045,
      "Ġì¶Ķì²ľ": 3046,
      "Ġ500": 3047,
      "ĠëĮĢì¤ĳ": 3048,
      "Ġëª¨ë°ĶìĿ¼": 3049,
      "Ġíĳľìłķ": 3050,
      "Ġë³´ìŀ¥": 3051,
      "ì½Ķë¡ľëĤĺ": 3052,
      "ĠíĶ¼íķ´ìŀĲ": 3053,
      "ĠíĺĪ": 3054,
      "Ġê³µëª¨": 3055,
      "ĠìĪĺìĪł": 3056,
      "ĠìķĦì¹¨": 3057,
      "ë°ĺëıĦ": 3058,
      "ìĺģíĻĶ": 3059,
      "ĠO": 3060,
      "ĠìĿ¸íĦ°ë·°": 3061,
      "íĶĦíĬ¸": 3062,
      "ìĿ´ìĸ´": 3063,
      "ww": 3064,
      "Ġìĭłë¢°": 3065,
      "Ġë¶ĪëŁ¬": 3066,
      "ĠìĺĪë¹Ħ": 3067,
      "ĠìłĦë°ĺ": 3068,
      "ĠR": 3069,
      "ì§ĢìĪĺ": 3070,
      "ì¡°ì°¨": 3071,
      "ĠëĮ": 3072,
      "Ġêµ¬ìĨį": 3073,
      "ë²¨": 3074,
      "ĠìłĦëł¥": 3075,
      "Ġê¹Į": 3076,
      "Ġê°ķëĤ¨": 3077,
      "íĺĳëł¥": 3078,
      "ĠìĪĺíĸī": 3079,
      "Ġë°ĺëĵľìĭľ": 3080,
      "ĠìĪĺìĹħ": 3081,
      "23": 3082,
      "íĿ¡": 3083,
      "íİ´": 3084,
      "ĠíİĢëĵľ": 3085,
      "ĠëĮĢì²´": 3086,
      "Ġë§¤ìŀ¥": 3087,
      "Ġë¹łìł¸": 3088,
      "ê´´": 3089,
      "ĠìļĶì¦ĺ": 3090,
      "êµ¬ìļĶ": 3091,
      "Ġì§ĢìŀĲì²´": 3092,
      "ìļ°ìĬ¤": 3093,
      "ëŀ¬": 3094,
      "ëľ»": 3095,
      "ĠìĦłìĸ¸": 3096,
      "êµĲìľ¡ì²Ń": 3097,
      "ìĪ¨": 3098,
      "Ġíĺ¸íħĶ": 3099,
      "ĠìĻĦìĦ±": 3100,
      "ĠëĩĮ": 3101,
      "ëĭ¤ë¥¸": 3102,
      "ĠíĿĳ": 3103,
      "ëĮ": 3104,
      "Ġ300": 3105,
      "ì°¨ë¡Ģ": 3106,
      "ĠíķŃê³µ": 3107,
      "ë§ŀ": 3108,
      "ĠíĻĶìŀ¥": 3109,
      "Ġê°Ģêµ¬": 3110,
      "ëļ": 3111,
      "Ġì¡°íķ©": 3112,
      "Ġì¶ķìłľ": 3113,
      "Ġìĭłê²½": 3114,
      "ì¡°ìĦł": 3115,
      "ĠëĤ´ë¦¬": 3116,
      "ìĽħ": 3117,
      "ĠìĿ¼ìľ¼": 3118,
      "ĠìĦ¤ê³Ħ": 3119,
      "ìĤ¬ìŀĲ": 3120,
      "ë¯Ģë¡ľ": 3121,
      "ê³µëĭ¨": 3122,
      "ĠìŀĲìĤ°": 3123,
      "ĠíĺĦìĥģ": 3124,
      "ĠìĿ´íķĺ": 3125,
      "Ġì¤": 3126,
      "500": 3127,
      "Ġë¬´ë£Į": 3128,
      "ĠìĬ¤íĥĢìĿ¼": 3129,
      "ìĭľì§Ģ": 3130,
      "Ġâĸł": 3131,
      "Ġì¡°ê±´": 3132,
      "Ġì¶ķêµ¬": 3133,
      "Ġìĵ´": 3134,
      "ĠìµľìĦł": 3135,
      "Ġìķ¼ëĭ¹": 3136,
      "ê¾": 3137,
      "ëĬĶëį°ìļĶ": 3138,
      "ĠêµŃë°©": 3139,
      "ê½ĥ": 3140,
      "ĠìľłìĿ¼": 3141,
      "Ġìĸ´ì©": 3142,
      "Ġìĭłìļ©": 3143,
      "ĠêµŃíļĮìĿĺìĽĲ": 3144,
      "ìĭĿíĴĪ": 3145,
      "Ġë°ĺë°ľ": 3146,
      "Ġì´Ŀìŀ¥": 3147,
      "ì½¤": 3148,
      "ëłī": 3149,
      "Ġë¶Īíİ¸": 3150,
      "Ġë°ĿíĺĢ": 3151,
      "Ġíķ´ìĨĮ": 3152,
      "íĸīìĤ¬": 3153,
      "Ġë°Ķê¿": 3154,
      "ìŀĲëĬĶ": 3155,
      "Ġì¶ľë§Ī": 3156,
      "ĠU": 3157,
      "17": 3158,
      "Ġì§ģìŀ¥": 3159,
      "Ġê³¨íĶĦ": 3160,
      "Ġíĸ¥ìĥģ": 3161,
      "Ġë²Ķì£Ħ": 3162,
      "ì°®": 3163,
      "íĺĶ": 3164,
      "ĠìķĮë¦¬": 3165,
      "14": 3166,
      "Ġë³´ê±´": 3167,
      "Ġì§Ħì§ľ": 3168,
      "Ġê°Ĳìłķ": 3169,
      "ĠìłĲê²Ģ": 3170,
      "Ġì¶ľìłĦ": 3171,
      "Ġì¶ľë°ľ": 3172,
      "Ġì¼ĢìĿ´": 3173,
      "íĨ¤": 3174,
      "Ġë§Īì°¬": 3175,
      "ĠìĤ¬ê³¼": 3176,
      "Ġìŀ¬ë¯¸": 3177,
      "Ġëĵ¤ìĹ¬": 3178,
      "ĠìľĦìĽĲ": 3179,
      "Ġë¹łë¥´": 3180,
      "ëĳĺ": 3181,
      "Ġë§º": 3182,
      "ëĤĺëĿ¼ëĭ¹": 3183,
      "ĠìĽĲìŀ¥": 3184,
      "ì£¼ìĭľ": 3185,
      "Ġê°ĳìŀĲê¸°": 3186,
      "Ġì¤ĦìĿ´": 3187,
      "Ġê±´ì¶ķ": 3188,
      "Ġì§Ħëĭ¨": 3189,
      "ìĿĺë£Į": 3190,
      "ìŀĲëıĻì°¨": 3191,
      "ĠìĺĽ": 3192,
      "Ġíĺ¼ìŀĲ": 3193,
      "ĠíĥĲ": 3194,
      "Ġê³¡": 3195,
      "ĠëĮĢë³Ģ": 3196,
      "ĠëĤĺíĥĢëĤĺ": 3197,
      "ëĮĢìĥģ": 3198,
      "Ġë§Īì°¬ê°Ģì§Ģ": 3199,
      "ìĿĢëį°": 3200,
      "Ġê¸°ìĹ¬": 3201,
      "ĠìĻ¸ë¶Ģ": 3202,
      "ĠíĬ¹ìĦ±": 3203,
      "íĬ¼": 3204,
      "ê°Ģê²©": 3205,
      "ĠìĤ´íİ´": 3206,
      "Ġë³Ģê²½": 3207,
      "Ġê±·": 3208,
      "Ġíĸ¥íķ´": 3209,
      "Ġìľłë¦¬": 3210,
      "ĠëĭĪ": 3211,
      "íļĮëĭ´": 3212,
      "Ġìĭ¤íĮ¨": 3213,
      "ì§ĢëĤľ": 3214,
      "ìĽĮíģ¬": 3215,
      "ĠìłĢíĿ¬": 3216,
      "ê°ĢëŁī": 3217,
      "ëŃ": 3218,
      "ì¤ĺ": 3219,
      "ĠëĤĺë¬´": 3220,
      "Ġë§¤ìĿ¼": 3221,
      "ë¨¸ì§Ģ": 3222,
      "íĽĦë³´": 3223,
      "ê¾¼": 3224,
      "Ġê¸Īì§Ģ": 3225,
      "Ġì´īêµ¬": 3226,
      "ĠìĹ°ê°Ħ": 3227,
      "Ġë¶Īêµ¬": 3228,
      "Ġì°¨ë³Ħ": 3229,
      "ì£½": 3230,
      "ĠìłĦëĤł": 3231,
      "ĠìĥĿëªħ": 3232,
      "ĠìŀĲëħĢ": 3233,
      "ĠìĹĺ": 3234,
      "ëĵľë¦¬": 3235,
      "ë©´ìĿĢ": 3236,
      "ê»ĺìĦľ": 3237,
      "ê±°ìļ´": 3238,
      "Ġì¶©ëĤ¨": 3239,
      "Ġë¹ļ": 3240,
      "ëĭ¤ë³´": 3241,
      "ĠìłĪë°ĺ": 3242,
      "íĶĦë¦¬": 3243,
      "íķ´ëıĦ": 3244,
      "Ġëª¨ì§ĳ": 3245,
      "Ġë¥ĺ": 3246,
      "Ġë¶Īë¦¬": 3247,
      "ar": 3248,
      "Ġë°ľêµ´": 3249,
      "Ġì´Īëĵ±": 3250,
      "ëł¬": 3251,
      "Ġì£¼ë¬¸": 3252,
      "ìŀĶ": 3253,
      "Ġìį¨": 3254,
      "Ġë²¤": 3255,
      "Ġìłĳê·¼": 3256,
      "ìĸ´ëĤ¬": 3257,
      "ìĭľì¼°": 3258,
      "ĠëŃĶ": 3259,
      "ĠìĨĮìĦ¤": 3260,
      "ê²ĢìĤ¬": 3261,
      "ĠìĤ¬ìĥģ": 3262,
      "ĠìĿ´ë²¤íĬ¸": 3263,
      "Ġìĥģë°ĺê¸°": 3264,
      "Ġìłķë¦¬": 3265,
      "ĠêµŃë¦½": 3266,
      "ê»´": 3267,
      "Ġìķ¡": 3268,
      "Ġì£¼ê°Ģ": 3269,
      "Ġìĭľê°ģ": 3270,
      "Ġëıħë¦½": 3271,
      "ĠìĿĺì§Ģ": 3272,
      "Ġë¶Ģìĥģ": 3273,
      "Ġë°°ì¹ĺ": 3274,
      "ëĳ¥": 3275,
      "ĠëĤ¸": 3276,
      "ĠíĨµìĭł": 3277,
      "ë¬¸ìłľ": 3278,
      "íļĮê²¬": 3279,
      "Ġê½": 3280,
      "Ġì¹ľíĻĺê²½": 3281,
      "Ġìĵ¸": 3282,
      "ëģĶ": 3283,
      "ë§¥": 3284,
      "íĶĮëłĪìĿ´": 3285,
      "ìĿ´ìĤ¬": 3286,
      "Ġë§Īì¼ĢíĮħ": 3287,
      "ë²ķìĽĲ": 3288,
      "íĨµíķ©": 3289,
      "ĠëĤĺë¨¸ì§Ģ": 3290,
      "ì½©": 3291,
      "Ġì²¨": 3292,
      "Ġëį°ìĿ´íĦ°": 3293,
      "Ġìĥģëĭ´": 3294,
      "Ġë¹¨ë¦¬": 3295,
      "ë¦¬ì¦Ī": 3296,
      "Ġìĭ±": 3297,
      "Ġë§¤ëł¥": 3298,
      "ìĨĶ": 3299,
      "ê³Ħìķ½": 3300,
      "íİĢëĵľ": 3301,
      "Ġê±°ë¶Ģ": 3302,
      "ĠíĽ¨": 3303,
      "ëħģ": 3304,
      "Ġë§Įì¡±": 3305,
      "Ġì±Ļ": 3306,
      "ëĤĺê°Ģ": 3307,
      "ì¡°íķ©": 3308,
      "ĠìĽĲëĤ´ëĮĢíĳľ": 3309,
      "įìłķ": 3310,
      "ëĵŃ": 3311,
      "27": 3312,
      "ĠëĿ¼ìĿ´": 3313,
      "ä¸": 3314,
      "êµ¬ì¡°": 3315,
      "ì¤ĳêµŃ": 3316,
      "ĠìµľìłĢ": 3317,
      "ĠìĦ¸ìĽĶ": 3318,
      "ê´Ħ": 3319,
      "ë£¡": 3320,
      "ê°Ģì¡±": 3321,
      "ĠëĶ°ëĿ¼ìĦľ": 3322,
      "ĠëıĮìķĦê°Ģ": 3323,
      "ì£¼ëħĦ": 3324,
      "ĠãĨį": 3325,
      "ĠìĹ°ì¶ľ": 3326,
      "Ġë¹Ħìĥģ": 3327,
      "al": 3328,
      "êµŃê°Ģ": 3329,
      "ĠíĬ¹ì§ķ": 3330,
      "Ġì£¼ë¡ľ": 3331,
      "ĠëĬĺìĸ´ëĤĺ": 3332,
      "ĠíĨ": 3333,
      "íķ´ì§Ħ": 3334,
      "Ġë´Ħ": 3335,
      "ìĭľíĤ¨": 3336,
      "ĠíĿĶëĵ¤": 3337,
      "Ġíľ´ëĮĢ": 3338,
      "28": 3339,
      "Ġíĥĵ": 3340,
      "ëĭ´íļĮ": 3341,
      "ĠíĽ¨ìĶ¬": 3342,
      "Ġë²ķìĽĲ": 3343,
      "Ġìŀłìĭľ": 3344,
      "Ġ2007": 3345,
      "ĠìĽĶëĵľ": 3346,
      "ĠìŀĬ": 3347,
      "Ġëĸ¨ìĸ´ì§Ģ": 3348,
      "Ġì§ĳíĸī": 3349,
      "ìĭľëĮĢ": 3350,
      "ĠêµŃë¬´": 3351,
      "Ġíı¬ê¸°": 3352,
      "Ġê´Ģê´ĳê°Ŀ": 3353,
      "en": 3354,
      "ì²Ńìŀ¥": 3355,
      "ĠíĬ¹ìłķ": 3356,
      "Ġêµ°ìĤ¬": 3357,
      "Ġíİ¸ìĿĺ": 3358,
      "ìģľ": 3359,
      "Ġì§Ħìłķ": 3360,
      "Ġë°ĳ": 3361,
      "Ġì²łìłĢ": 3362,
      "29": 3363,
      "ìľ¼ëĭĪê¹Į": 3364,
      "26": 3365,
      "ĠìŀĲìĽĲ": 3366,
      "Ġê°ķíķľ": 3367,
      "ĠìĿ¼ìĥģ": 3368,
      "êµ°ìļĶ": 3369,
      "ĠëĥĪ": 3370,
      "ëĤĻ": 3371,
      "Ġê´´": 3372,
      "Ġëĭ¹ìĹ°": 3373,
      "Ġíĥĳ": 3374,
      "ĠìŀĦê¸Ī": 3375,
      "ëĺ": 3376,
      "ì²¨": 3377,
      "ĠìĬ¤íĬ¸": 3378,
      "Ġê³¼ìłľ": 3379,
      "ìĿ¼ë³´": 3380,
      "ĠëĪĪë¬¼": 3381,
      "ĠíķĺëĬĺ": 3382,
      "Ġíļ¨ìľ¨": 3383,
      "Ġê²ģëĭĪëĭ¤": 3384,
      "Ġë°ĶëĢĮ": 3385,
      "ĠìĿ¼ìĸ´ëĤĺ": 3386,
      "Ġë²½": 3387,
      "Ġê·¹ë³µ": 3388,
      "Ġë¹¨": 3389,
      "Ġì°½ìĽĲ": 3390,
      "ĠëĮĢëĭµ": 3391,
      "Ġëĵł": 3392,
      "ĵ¨": 3393,
      "Ġì£Ħ": 3394,
      "Ġëĭ¤ëĭĪ": 3395,
      "ìģĺ": 3396,
      "Ġë°Ķëĭ¤": 3397,
      "ĠíŀĪ": 3398,
      "Ġë®¤": 3399,
      "ë¦ī": 3400,
      "íĮĮíģ¬": 3401,
      "ĠíķľëĤĺëĿ¼ëĭ¹": 3402,
      "Ġìŀ¥ìĨĮ": 3403,
      "ĠìĻĦíĻĶ": 3404,
      "Ġì¿ł": 3405,
      "Ġê°ľíĺģ": 3406,
      "íĭ±": 3407,
      "Ġì²´ê³Ħ": 3408,
      "ĠíĺķìĦ±": 3409,
      "ê·ľì§ģ": 3410,
      "ê³µìŀ¥": 3411,
      "ë¹Ļ": 3412,
      "ê°Ĳëıħ": 3413,
      "Ġì»´": 3414,
      "Ġë°©ìĹŃ": 3415,
      "ĠH": 3416,
      "Ġê¼¬": 3417,
      "ĠíĮĲê²°": 3418,
      "ĠìłĦë¶ģ": 3419,
      "ëĭ¤ëĭĪ": 3420,
      "ĠíķĻìĬµ": 3421,
      "ëħķ": 3422,
      "ĠìĭľìĦł": 3423,
      "Ġêµ³": 3424,
      "Ġì§ĢìĤ¬": 3425,
      "ĠíıīìĨĮ": 3426,
      "Ġê¸°ë¶Ģ": 3427,
      "íĬľ": 3428,
      "ë²ķìĿ¸": 3429,
      "NS": 3430,
      "Ġë¶Ģì§Ģ": 3431,
      "at": 3432,
      "Ġì¸¡ë©´": 3433,
      "Ġíķ´ìĦĿ": 3434,
      "ĠìŀĲì£¼": 3435,
      "Ġëĺĳ": 3436,
      "ĠìĨĮìĨ¡": 3437,
      "Ġê´Ģê°Ŀ": 3438,
      "ìŀ¥ê´Ģ": 3439,
      "ĠìĭľìłĲ": 3440,
      "ìĺ¬ë¦¼íĶ½": 3441,
      "ìĸ´ì§Ħ": 3442,
      "Ġë²ĦìĬ¤": 3443,
      "ìĿĦì§Ģ": 3444,
      "ĠìŀĲê²©": 3445,
      "ë¬¸íķĻ": 3446,
      "Ġì¶ľë²Ķ": 3447,
      "Ġíķĺë°ĺê¸°": 3448,
      "ĠëĶĶì§ĢíĦ¸": 3449,
      "Ġë°¥": 3450,
      "ì½ľ": 3451,
      "ê²ģ": 3452,
      "ĠìĿ´ë¥¸": 3453,
      "Ġë¶Ģë¥´": 3454,
      "Ġì¶©ë¶ĦíŀĪ": 3455,
      "Ġì§ĢìĭĿ": 3456,
      "ìĭ¼": 3457,
      "¥Ĳ": 3458,
      "ĠíĪ¬ìŀĲìŀĲ": 3459,
      "Ġê³µìķ½": 3460,
      "Ġê·¼ê±°": 3461,
      "ë¡±": 3462,
      "Ġëĭ¬ëł¤": 3463,
      "íĴĢ": 3464,
      "ĠìĿ¸ìĥĿ": 3465,
      "Ġ35": 3466,
      "ĠíĺĦëĮĢì°¨": 3467,
      "ê°ĢìĬ¤": 3468,
      "Ġìĺ¬ë¦¼íĶ½": 3469,
      "ĠíĨµíĻĶ": 3470,
      "ĠìĹ¬ìķ¼": 3471,
      "Ġë°ĶëŀĢëĭ¤": 3472,
      "ëľ¨": 3473,
      "ê¸°ì¤Ģ": 3474,
      "Ġë°°ê²½": 3475,
      "ì¹¼": 3476,
      "Ġë¬¸ìŀ¬ìĿ¸": 3477,
      "ê²ĮìŀĦ": 3478,
      "ëĭī": 3479,
      "Ġë§ĮëĤľ": 3480,
      "Ġë¶Ģë¶Ģ": 3481,
      "ĠíĨµìĿ¼": 3482,
      "ëĵłì§Ģ": 3483,
      "Ġë»": 3484,
      "Ġìŀ¥ë©´": 3485,
      "ĠíĻķìĭ¤": 3486,
      "Ġë³ĦëıĦ": 3487,
      "ìĹ°ê¸Ī": 3488,
      "ì²ľë§Į": 3489,
      "ĠíĹĪìļ©": 3490,
      "5000": 3491,
      "ìķ¤": 3492,
      "ëķ": 3493,
      "ĠìķĮìķĦ": 3494,
      "Ġ90": 3495,
      "Ġì«": 3496,
      "Ġê¸°ë¶Ħ": 3497,
      "Ġê²¸": 3498,
      "Ġê³łíĨµ": 3499,
      "íħį": 3500,
      "ĠìłĳìĪĺ": 3501,
      "Ġê±´ë¦½": 3502,
      "ĠëĪĪê¸¸": 3503,
      "Ġì·¨ì§Ģ": 3504,
      "Ġê³ĦìĹ´": 3505,
      "ìĿ¼ê¹Į": 3506,
      "ìĹ°êµ¬ìĨĮ": 3507,
      "ĠëĤĺëĪĦ": 3508,
      "Ġê±¸ì³Ĳ": 3509,
      "ê¸°êµ¬": 3510,
      "ĠìĥĪë¡ľ": 3511,
      "ë¯¸êµŃ": 3512,
      "ìĿ´ëĦĪ": 3513,
      "íķľëĭ¤ë©´": 3514,
      "Ġì¹ł": 3515,
      "Ġì§§": 3516,
      "ĠìĽĲì¹Ļ": 3517,
      "ìŀĲìĤ°": 3518,
      "ì´Ŀë¦¬": 3519,
      "Ġì»¬": 3520,
      "Ġì£¼ìĿ¸ê³µ": 3521,
      "ĠìłĢëħģ": 3522,
      "Ġêµ¬ìŀħ": 3523,
      "ê³µê°Ħ": 3524,
      "ĠìĹŃëŁī": 3525,
      "ĠìŀĲëŀĳ": 3526,
      "Ġê·¸ëŀ¬": 3527,
      "ëĵ±ê¸ī": 3528,
      "ĠìłĦë©´": 3529,
      "íĬ¸ëĤ¨": 3530,
      "ëĮĢêµ¬": 3531,
      "Ġê³µê°Ĳ": 3532,
      "ĠëĶ±": 3533,
      "íĶ¼ìĬ¤": 3534,
      "Ġê¸´ê¸ī": 3535,
      "Ġì§ĳëĭ¨": 3536,
      "ĠìķĦìļ¸": 3537,
      "ĠëıĻìĿĺ": 3538,
      "ĠìĥĿê¸°": 3539,
      "ìĭľì¦Į": 3540,
      "ìĤ¼ìĦ±": 3541,
      "Ġê°ĢëĵĿ": 3542,
      "Ġì¡°ê¸°": 3543,
      "Ġ198": 3544,
      "ìĭ¬íŀĪ": 3545,
      "ëĴ": 3546,
      "Ġëıķ": 3547,
      "ĠêµĲì²´": 3548,
      "Ġê°ĲìķĪ": 3549,
      "Ġë²ĮìĿ´": 3550,
      "ëĵ¬": 3551,
      "ĠìĤ´ìķĦ": 3552,
      "Ġì¶Ķìłķ": 3553,
      "ĠëĬĲê»´": 3554,
      "ëĮĢì¶ľ": 3555,
      "ì£¼ë¯¼": 3556,
      "ĠìĦ¸ëĮĢ": 3557,
      "Ġë²ķë¥ł": 3558,
      "ĠíĬ¹ìĪĺ": 3559,
      "Ġì§Ģë¶Ħ": 3560,
      "ĠíĮ¨ìħĺ": 3561,
      "Ġê¸įìłķ": 3562,
      "ĠìĿ´ë¤Ħì§Ģ": 3563,
      "ĠìĭłìĦ¤": 3564,
      "Ġë¶ĢíļĮìŀ¥": 3565,
      "ĠëĪĦê°Ģ": 3566,
      "ë®¤": 3567,
      "ìºĲ": 3568,
      "Ġê¸°ëĭ¤ë¦¬": 3569,
      "Ġë°ĿíŀĪ": 3570,
      "ĠìĥĿíĥľ": 3571,
      "íŀĲ": 3572,
      "ĠíĶĮëŀ«": 3573,
      "Ġë§¤ê°ģ": 3574,
      "Ġê´ĢëŀĮ": 3575,
      "Ġë¹ħ": 3576,
      "Ġ2020": 3577,
      "Ġìĺ¬ëł¸": 3578,
      "ĠìķĦëıĻ": 3579,
      "ĠìĪĺìĦĿ": 3580,
      "ë¥Ļ": 3581,
      "Ġë°Ķê¾¸": 3582,
      "ìĹĲëĦĪì§Ģ": 3583,
      "Ġê¸°ìļ¸": 3584,
      "Ġê¸Īìķ¡": 3585,
      "ë¶Ģìŀ¥": 3586,
      "ĠìĽĥìĿĮ": 3587,
      "Ġìłķê¸°": 3588,
      "ëªħë°ķ": 3589,
      "ê³µìĹħ": 3590,
      "Ġìĭłë¬¸": 3591,
      "ì´Ŀìŀ¥": 3592,
      "Ġê±°ëĵŃ": 3593,
      "ê·¸ëŀĺ": 3594,
      "ĠìķĪíĥĢ": 3595,
      "ĠëĤĺê°Ī": 3596,
      "Ġëħ¸ëıĻìŀĲ": 3597,
      "ìĭłë¬¸": 3598,
      "Ġëĭ¹ìŀ¥": 3599,
      "ĠëģĮìĸ´": 3600,
      "ĠìŀĳìĦ±": 3601,
      "Ġì£¼ë§Ĳ": 3602,
      "íĨłë¦¬": 3603,
      "ìĤ¬ëŀĳ": 3604,
      "Ġì¶©ê²©": 3605,
      "Ġê·¸ë¦°": 3606,
      "ĠìłķìĿĺ": 3607,
      "ĠìĿ¸ì¦Ŀ": 3608,
      "Ġê·ł": 3609,
      "Ġê¾¸ì¤ĢíŀĪ": 3610,
      "ë³´íĺ¸": 3611,
      "Ġê°Ģê¹ĮìĿ´": 3612,
      "ê²Ĳ": 3613,
      "Ġë°°ì¶ľ": 3614,
      "Ġë²ķë¬´": 3615,
      "Ġì³Ĳ": 3616,
      "ë·Ķ": 3617,
      "ĠìłĪëĮĢ": 3618,
      "íĬ¸ìĽĮíģ¬": 3619,
      "ë´ĩ": 3620,
      "'(": 3621,
      "¤ë²Ħ": 3622,
      "ĠìĦłê³ł": 3623,
      "ĠêµĲê³¼": 3624,
      "ë©ĶëĿ¼": 3625,
      "ìħĢ": 3626,
      "ë¶ĢìĤ°": 3627,
      "Ġt": 3628,
      "Ġë¯¸ì¹ĺ": 3629,
      "Ġë¶Īê°Ģ": 3630,
      "ëĭ¹êµŃ": 3631,
      "Ġì£¼ì°¨": 3632,
      "Ġë©Ī": 3633,
      "Ġì§Ģìĭľ": 3634,
      "Ġê¸´ìŀ¥": 3635,
      "Ġë¬¸íķĻ": 3636,
      "Ġìķ±": 3637,
      "Ġì£¼ê±°": 3638,
      "Ġë²ķìķĪ": 3639,
      "ĠìŀĲìľ¨": 3640,
      "íĦ°ë¦¬": 3641,
      "Ġìĭ¤ì²ľ": 3642,
      "Ġêµ´": 3643,
      "íĸīìľĦ": 3644,
      "ë°¥": 3645,
      "ĠíĶĦë¦¬ë¯¸": 3646,
      "%(": 3647,
      "ê³łê¸°": 3648,
      "ìħľ": 3649,
      "ĠíķĻë¶Ģëª¨": 3650,
      "íĺģìĭł": 3651,
      "ëģĦ": 3652,
      "ê°Ħëĭ¤": 3653,
      "ë§İ": 3654,
      "ĠëıĦì°©": 3655,
      "Ġìĺ¤ëŀľ": 3656,
      "Ġì¢ħëª©": 3657,
      "íĸĪìľ¼ëĤĺ": 3658,
      "ĠV": 3659,
      "ìŀ¥ìķł": 3660,
      "ì§Ģê¸Ī": 3661,
      "ìºł": 3662,
      "ĠìĿ´ìĿµ": 3663,
      "Ġì»¤íĶ¼": 3664,
      "Ġê°ľë§ī": 3665,
      "ĠíĻķìŀ¥": 3666,
      "ê±´ì¶ķ": 3667,
      "©ëĭĪëĭ¤": 3668,
      "ĠìķĦìļ¸ëŁ¬": 3669,
      "Ġ`": 3670,
      "ĠìĪĺë¦½": 3671,
      "Ġê°ľìłķìķĪ": 3672,
      "ĠìĻĦìłĦíŀĪ": 3673,
      "Ġìŀ¬ìĤ°": 3674,
      "Ġê°ĢìĪĺ": 3675,
      "ìĥĿëªħ": 3676,
      "ĠìĥĪë¡Ń": 3677,
      "ĠíķĺìĿ´": 3678,
      "ĠëĨįìĹħ": 3679,
      "Ġê°Ģë¥´": 3680,
      "Ġë§ŀì¶¤": 3681,
      "Ġíķłë¨¸ëĭĪ": 3682,
      "ìĺģìĥģ": 3683,
      "Ġì¦Ŀê¶Į": 3684,
      "ë¬µ": 3685,
      "ĠìĿĺìŀ¥": 3686,
      "ê°ľêµŃ": 3687,
      "Ġê´ľ": 3688,
      "Ġëĭ¹êµŃ": 3689,
      "Ġì·¨ìĨĮ": 3690,
      "Ġì½ľ": 3691,
      "ĠKBS": 3692,
      "ëĭĮ": 3693,
      "ì§ĢëıĦ": 3694,
      "Ġë°ĿíŀĮ": 3695,
      "ì¢ħíķ©": 3696,
      "ĠìŀĦìĭľ": 3697,
      "ë§ĪìłĢ": 3698,
      "íı´": 3699,
      "ĠìĿĺíķ´": 3700,
      "Ġê³µì²ľ": 3701,
      "ìłĦëŀµ": 3702,
      "ĠìĿ¸ê¶Į": 3703,
      "ĠìķłíĶĮ": 3704,
      "Ġì·¨ìŀĦ": 3705,
      "íĸīìłķ": 3706,
      "íĻĶíķĻ": 3707,
      "íĻĪ": 3708,
      "ĠìĻĦë£Į": 3709,
      "ëĿ¼ìļ´ëĵľ": 3710,
      "ĠìĿĳëĭµ": 3711,
      "Ġìķ¼êµ¬": 3712,
      "Ġì´Īê¸°": 3713,
      "ìĭ¤ìŀ¥": 3714,
      "Ġë´īìĤ¬": 3715,
      "Ġê¶ģê¸Ī": 3716,
      "Ġëĭ¤ìĨĮ": 3717,
      "ìĿį": 3718,
      "ĠìĹŃëĮĢ": 3719,
      "ĠíĻľìķ½": 3720,
      "Ġëĵ¤ìĸ´ê°Ķ": 3721,
      "Ġê¸°ìĨĮ": 3722,
      "ĠëĨĢëĿ¼": 3723,
      "Ġê±°ì£¼": 3724,
      "íĵ¨": 3725,
      "ìĭľíĹĺ": 3726,
      "ì¶ķìłľ": 3727,
      "Ġì²ĺë²Į": 3728,
      "ĠìĤ¬ìĭ¤ìĥģ": 3729,
      "ê°Ģì¹ĺ": 3730,
      "ì»´": 3731,
      "ĠìĸĳìĦ±": 3732,
      "Ġë§¨": 3733,
      "ĠìĨĮìľł": 3734,
      "Ġë¯¸ë¦¬": 3735,
      "Ġëĸłìĺ¬": 3736,
      "ĠìĿĺìĭ¬": 3737,
      "ĠëĮĢë¡ľ": 3738,
      "Ġìłķë¹Ħ": 3739,
      "Ġëī´ìļķ": 3740,
      "ìļ´ìĺģ": 3741,
      "ìĽ¨ìĿ´": 3742,
      "ĠíĥĢìĿ´": 3743,
      "Ġì§Ģêµ¬": 3744,
      "Ġë²Ĺìĸ´ëĤĺ": 3745,
      "Ġë°ķìĤ¬": 3746,
      "ĠíķľíĻĶ": 3747,
      "ìłĦê±°": 3748,
      "ĠìĿ´ìŀ¬": 3749,
      "ìķĦëıĦ": 3750,
      "ĠìľĦíĺĳ": 3751,
      "ìĪĺìĤ¬": 3752,
      "ëĭ¤ìĭľ": 3753,
      "ĠìĭĿíĴĪ": 3754,
      "ĠëĮĢë³ĢìĿ¸": 3755,
      "ĠìĪĺìļ©": 3756,
      "ĠìķĪëĤ´": 3757,
      "ìķ¼êµ¬": 3758,
      "ĠMBC": 3759,
      "Ġê¶Įëł¥": 3760,
      "ĠëıĮíĮĮ": 3761,
      "ë©Ķëĭ¬": 3762,
      "Ġëĭ¹ì´Ī": 3763,
      "ĠëĵĿ": 3764,
      "Ġìĭ¤íĺĦ": 3765,
      "ë¦ŃíĦ°": 3766,
      "ĠìŀĩëĶ°": 3767,
      "Ġë³´ìĥģ": 3768,
      "ì²ĺë¦¬": 3769,
      "Ġëĭ¹ë¶Ģ": 3770,
      "ĠKB": 3771,
      "Ġëī´ìĬ¤": 3772,
      "íĨ¡": 3773,
      "âĨ": 3774,
      "ĠìĹ¬ëŁ¬ë¶Ħ": 3775,
      "ì²´ê³Ħ": 3776,
      "Ġëįľ": 3777,
      "Ġìķ½ê°Ħ": 3778,
      "ĠíĿ¡": 3779,
      "Ġê³łìľĦ": 3780,
      "ĠëĤĺëĪł": 3781,
      "Ġíı¬íķŃ": 3782,
      "Ġë°©ì§Ģ": 3783,
      "ì°į": 3784,
      "ĠìĺģìĹŃ": 3785,
      "íķĺëĤĺ": 3786,
      "ĠëıĻìķĦ": 3787,
      "ì¹´ìĺ¤": 3788,
      "ĠíĦ¸": 3789,
      "Ġìĺ¬ëł¤": 3790,
      "Ġê·¸ëŀĺëıĦ": 3791,
      "ĠW": 3792,
      "Ġë³´ê³łìĦľ": 3793,
      "Ġì¤ĳê°Ħ": 3794,
      "Ġë©Ķìĭľì§Ģ": 3795,
      "Ġë©¤ë²Ħ": 3796,
      "Ġë¯¸ìĪł": 3797,
      "Ġ2019": 3798,
      "ëª¬": 3799,
      "ë§Ľ": 3800,
      "ĠìŀĲëıĻ": 3801,
      "ĠíĥľëıĦ": 3802,
      "ë¬¼ê´Ģ": 3803,
      "Ġì§ĳê³Ħ": 3804,
      "ĠëĤĺìĺ¬": 3805,
      "ìĭľíĭ°": 3806,
      "Ġìĭ¬ë¦¬": 3807,
      "Ġë³´íĨµ": 3808,
      "Ġì¦Ĳê¸¸": 3809,
      "Ġâĸ·": 3810,
      "Ġì¦Ŀê±°": 3811,
      "Ġë²łíĬ¸ëĤ¨": 3812,
      "31": 3813,
      "Ġ36": 3814,
      "íĭ´": 3815,
      "Ġì¦Ĳê¸°": 3816,
      "Ġê°ĸì¶ĺ": 3817,
      "Ġë¹łë¥¸": 3818,
      "Ġìĭ«": 3819,
      "Ġê·¸ë§Į": 3820,
      "ì²ľìĭľ": 3821,
      "Ġê·¼ë¡ľìŀĲ": 3822,
      "Ġì§ģíĽĦ": 3823,
      "ë²Ħë¦¬": 3824,
      "ìŀĦê¸Ī": 3825,
      "Ġì§ľ": 3826,
      "ĠìĽĢì§ģìŀĦ": 3827,
      "ĠíıĲì§Ģ": 3828,
      "ĠìĿ¸íķĺ": 3829,
      "íħĮíģ¬": 3830,
      "Ġê¹Ģìĺģ": 3831,
      "ìĭľíĤ¬": 3832,
      "ĠìĬ¹ë¶Ģ": 3833,
      "Ġíĥľìĸĳ": 3834,
      "Ġìĩ¼íķĳ": 3835,
      "ĠëıĮëł¤": 3836,
      "ìĤ¬íķŃ": 3837,
      "Ġìĭ¤ì§Ī": 3838,
      "ĠíĽĦìĽĲ": 3839,
      "ĠìĬµ": 3840,
      "ëĬ¥ëł¥": 3841,
      "Ġì²´ìłľ": 3842,
      "ĶíĶ¼": 3843,
      "ĠíĴĪì§Ī": 3844,
      "ĠìĹ´ìĭ¬íŀĪ": 3845,
      "Ġê³łëĵ±": 3846,
      "ĠìķħíĻĶ": 3847,
      "ĠëıĻë¬¼": 3848,
      "Ġë¬ĺ": 3849,
      "ĠìŀĲë³¸": 3850,
      "ĠìĪĺëĬ¥": 3851,
      "Ġíļį": 3852,
      "Ġíķ´ìĸĳ": 3853,
      "ëĮĢíķĻêµĲ": 3854,
      "co": 3855,
      "Ġì§Ħìŀħ": 3856,
      "Ġê°Ģê¹Įìļ´": 3857,
      "ĠëŃĶê°Ģ": 3858,
      "Ġëª¨ìķĦ": 3859,
      "Ġê³³ê³³": 3860,
      "ë©ĺ": 3861,
      "ìĦ¬": 3862,
      "Ġëĭ¤ë¦¬": 3863,
      "st": 3864,
      "Ġë¶ĢìĹ¬": 3865,
      "Ġê³¤": 3866,
      "íĺĦì§Ģ": 3867,
      "Ġì£¼ëł¥": 3868,
      "ì¡°ê±´": 3869,
      "35": 3870,
      "Ġì§Ĳ": 3871,
      "ĠëªħìĺĪ": 3872,
      "ĠìºĲë¦ŃíĦ°": 3873,
      "Ġìĺ¤íĶĪ": 3874,
      "Ġëį°ë·Ķ": 3875,
      "Ġë°ĺë³µ": 3876,
      "ëłģ": 3877,
      "ĠìłľìĿ¼": 3878,
      "ĠìĿ¸ê³µ": 3879,
      "Ġë¬¼ëŁī": 3880,
      "Ġë§Įìķ½": 3881,
      "ĠìĿĺë¬´": 3882,
      "it": 3883,
      "Ġëª¨ìĹ¬": 3884,
      "¼ìĨĲ": 3885,
      "íĺĦëĮĢ": 3886,
      "ĠìĹ°ë§Ĳ": 3887,
      "ì§ģìŀĲ": 3888,
      "íĢ": 3889,
      "Ġê·¸ëŁ´": 3890,
      "ê°ľíĺģ": 3891,
      "ê¶": 3892,
      "ëĿ¼ìĬ¤": 3893,
      "ĠìĪ²": 3894,
      "ĠìĹ°êµ¬ìĽĲ": 3895,
      "Ġìĭłì¢ħ": 3896,
      "Ġìŀ¥ìłĲ": 3897,
      "êµŃìŀ¥": 3898,
      "Ġíķľë°ĺëıĦ": 3899,
      "ĠíĿĲë¦Ħ": 3900,
      "Ġë¹ĦëĤľ": 3901,
      "Ġìļ´ìłĦ": 3902,
      "Ġê°ĢëıĻ": 3903,
      "Ġìľµ": 3904,
      "Ġëħ¸ìĦł": 3905,
      "ĠìĦłì§Ħ": 3906,
      "Ġë§Īìĭľ": 3907,
      "Ġê°ĢìĿĦ": 3908,
      "ëħ¸ì¡°": 3909,
      "Ġê°ĸì¶Ķ": 3910,
      "ĠìĿ¸íĶĦëĿ¼": 3911,
      "ĠëĤ´ëł¸": 3912,
      "ĠëĶ°ëľ»": 3913,
      "Ġíı¬ìĬ¤ì½Ķ": 3914,
      "ĠíķŃìĥģ": 3915,
      "Ġë¶Ģì§Ħ": 3916,
      "ê²½ë¶ģ": 3917,
      "ĠIT": 3918,
      "Ġë¬´ìĹŃ": 3919,
      "Ġë§ĪìĬ¤íģ¬": 3920,
      "ë¶Ģë¬¸": 3921,
      "ĠìłĦìĦ¸": 3922,
      "TA": 3923,
      "ë¹Ħìļ©": 3924,
      "Ġíķľê³Ħ": 3925,
      "íķ´ìļĶ": 3926,
      "Ġì£½ìĿĮ": 3927,
      "ĠìĿĺìĭĿ": 3928,
      "íĺĳìĿĺíļĮ": 3929,
      "ìłĦíĻĶ": 3930,
      "Ġíİ¼ì¹ĺ": 3931,
      "ĠìĬ¹ìĿ¸": 3932,
      "ìĸ´ëĤł": 3933,
      "ĠìĦ±ê²©": 3934,
      "ĠíĻĶìłľ": 3935,
      "ĠëĬĺìĸ´ëĤľ": 3936,
      "Ġìĥģì§ķ": 3937,
      "Ġê°Ŀ": 3938,
      "ĠJ": 3939,
      "Ġì»¤ì§Ģ": 3940,
      "Ġê°¤": 3941,
      "Ġìŀĳìļ©": 3942,
      "Ġì²Ļ": 3943,
      "Ġìį¼": 3944,
      "Ġë¸ĮëĿ¼": 3945,
      "ĠìķĦëĭĮê°Ģ": 3946,
      "ĠìĦ¸ê¸Ī": 3947,
      "Ġë²ķìĿ¸": 3948,
      "ĠíĺķìĤ¬": 3949,
      "ì·": 3950,
      "Ġ33": 3951,
      "Ġìĭ¤ëł¥": 3952,
      "Ġêµ¬ê°Ħ": 3953,
      "ĠìĦ¼íĦ°": 3954,
      "ìĤ¬ìĿ¼": 3955,
      "Ġë¯¸ìĦ¸": 3956,
      "íĥĳ": 3957,
      "Ġíı´": 3958,
      "ĠìĹĦì²Ń": 3959,
      "Ġìĥģìŀ¥": 3960,
      "Ġëĭ¬íķĺ": 3961,
      "íĬ¸ë¦¬": 3962,
      "ĠëĤ´ìĦ¸": 3963,
      "ì£¼ìĿ¼": 3964,
      "Ġ2006": 3965,
      "ĠìĦľìļ¸ëĮĢ": 3966,
      "ëŀĦ": 3967,
      "ĠìĤ¬íķŃ": 3968,
      "ĠíİĺìĿ´ìĬ¤": 3969,
      "ìĤ¬ë¬´": 3970,
      "ĠëıĻê¸°": 3971,
      "Ġìķķë°ķ": 3972,
      "Ġíŀĺëĵł": 3973,
      "Ġë©ĭ": 3974,
      "ĠìļĶë¦¬": 3975,
      "Ġëĸ¨ìĸ´ì§Ħ": 3976,
      "Ġì¹ĺìĹ´": 3977,
      "ĠìĿ´ìĤ¬": 3978,
      "Ġìĸ´ê¹¨": 3979,
      "Ġë°ľíĸī": 3980,
      "Ġê·¸ê±°": 3981,
      "Ġì¶ĺ": 3982,
      "ĠìĺĪì¸¡": 3983,
      "Ġê²Ģì¦Ŀ": 3984,
      "ĠìłĦíķ´": 3985,
      "Ġì§ģìĹħ": 3986,
      "ë¨¼ì§Ģ": 3987,
      "45": 3988,
      "ì¶ķêµ¬": 3989,
      "Ġë°ĺëıĦ": 3990,
      "Ġì¶ķìĨĮ": 3991,
      "Ġë¶ĢíĴĪ": 3992,
      "ëĦĺ": 3993,
      "ìĹ½": 3994,
      "Ġë¶Ģíĥģ": 3995,
      "ìĿ¼ë³¸": 3996,
      "ĠìķĦë¦Ħëĭ¤ìļ´": 3997,
      "Ġì¦Ŀìĥģ": 3998,
      "Ġë¦¬ëįĶ": 3999,
      "íģĲ": 4000,
      "ĠëĿ¼ìĿ¸": 4001,
      "Ġê°ķìłľ": 4002,
      "ĠìĪĺìĪĺ": 4003,
      "íĶĮëŁ¬ìĬ¤": 4004,
      "ë°Ķë¡ľ": 4005,
      "ëĭĪìķĦ": 4006,
      "ĠëĿĦ": 4007,
      "ìĪĺìĽĲ": 4008,
      "ĠíĤ¤ìļ°": 4009,
      "Ġë³¸ëĭ¤": 4010,
      "ĠìĿ´íĥĪ": 4011,
      "ĠëıĦìĻĢ": 4012,
      "90": 4013,
      "CC": 4014,
      "ëħ¼": 4015,
      "ìĩ¼íķĳ": 4016,
      "ê»ı": 4017,
      "ì¹ĺë£Į": 4018,
      "Ġëįķë¶Ħ": 4019,
      "Ġê·¸ê±¸": 4020,
      "Ġê°ľíİ¸": 4021,
      "êº¼": 4022,
      "Ġ45": 4023,
      "Ġì°¨ëĭ¨": 4024,
      "Ġìłľìŀ¬": 4025,
      "ê·¸ëŁ¬": 4026,
      "ëĨ¨": 4027,
      "Ġì²Ńêµ¬": 4028,
      "Ġë©ĶìĿ´": 4029,
      "ìĺ¤ë¥´": 4030,
      "ĠìĮį": 4031,
      "ĠëĽ°ìĸ´": 4032,
      "ãĢı": 4033,
      "ìĪĺìĪĺ": 4034,
      "ìĺĪìĤ°": 4035,
      "ĠìĦłë³´ìĿ´": 4036,
      "IA": 4037,
      "Ġë³µíķ©": 4038,
      "Ġë°Ķëĭ¥": 4039,
      "Ġë¬´ë¦¬": 4040,
      "ìĿ´ë²Ħ": 4041,
      "Ġì¼Ģ": 4042,
      "Ġë³µê·Ģ": 4043,
      "Ġë²łìĿ´": 4044,
      "ìŀĲë£Į": 4045,
      "ĠìļĶìĿ¸": 4046,
      "ĠìĹ°ì£¼": 4047,
      "ĠëĦ¤ëĦ¤": 4048,
      "ĠìĭłìĨį": 4049,
      "ìĽĶëĵľ": 4050,
      "ĠìĤ¬ëĤ´": 4051,
      "ì²´íĹĺ": 4052,
      "Ġìŀ¥ë¹Ħ": 4053,
      "íĺĦìŀ¬": 4054,
      "ĠëĮĢêµ¬ìĭľ": 4055,
      "Ġíľ": 4056,
      "íĭ°ë¸Į": 4057,
      "Ġë§Īë¦¬": 4058,
      "ëĪĪ": 4059,
      "Ġê³µê¸°": 4060,
      "Ġê²½ìĦł": 4061,
      "íıŃëł¥": 4062,
      "Ġìĥģìĥģ": 4063,
      "33": 4064,
      "re": 4065,
      "ëĿ¼ë©´ìĦľ": 4066,
      "ĠëĨĪ": 4067,
      "Ġíı¬ìĿ¸íĬ¸": 4068,
      "Ġë¨¸ë¬¼": 4069,
      "ĠìĹ¬ëĭ¹": 4070,
      "ĠëĮĢíıŃ": 4071,
      "ëı¼ìķ¼": 4072,
      "ĠëĬĺë¦¬": 4073,
      "ëĬĶëĭ¤ëĬĶ": 4074,
      "ìĺ¬íķ´": 4075,
      "ĠëĮĢê¸°": 4076,
      "ìĦľíĬ¸": 4077,
      "ê°ĢëĿ½": 4078,
      "Ġê°Ģë¡ľ": 4079,
      "ĠìĭľìľĦ": 4080,
      "ì½Ķë¦¬ìķĦ": 4081,
      "Ġë°ĺëıĦì²´": 4082,
      "Ġëĸ¨": 4083,
      "ĠíĽĦë°ĺ": 4084,
      "ìĥĿìĤ°": 4085,
      "Ġíĥģ": 4086,
      "ĠìłĦíĺķ": 4087,
      "ì·Ħ": 4088,
      "100": 4089,
      "ĠìĿ´ëªħë°ķ": 4090,
      "ĠìĪĺìłķ": 4091,
      "ĠëĮĢìķĪ": 4092,
      "Ġê¸īì¦Ŀ": 4093,
      "ĠìıŁìķĦ": 4094,
      "ĠíĿĺëŁ¬": 4095,
      "Ġì´Īì²Ń": 4096,
      "ë¶Ħìķ¼": 4097,
      "ìŀī": 4098,
      "ĠìĮĢ": 4099,
      "ĠìĤ¬ìłķ": 4100,
      "Ġì¤Ħìĸ´ëĵ¤": 4101,
      "ë£¬": 4102,
      "íķ´ìĸĳ": 4103,
      "ĠëĪĦêµ°": 4104,
      "ĠìĨĮë°©": 4105,
      "íĽĪëł¨": 4106,
      "ìķĦë²Ħì§Ģ": 4107,
      "ì©į": 4108,
      "ĠìĹ°ëĿ½": 4109,
      "Ġê³łìĸĳ": 4110,
      "ëĶľ": 4111,
      "ĠìĤŃ": 4112,
      "ĠìĿ¸ìŀ¬": 4113,
      "Ġìĥģëĭ¹íŀĪ": 4114,
      "ĠãĦ": 4115,
      "ì¾Į": 4116,
      "ĠíķĦìĪĺ": 4117,
      "Ġíĺ¸ìĨĮ": 4118,
      "ĠìĺĪê³ł": 4119,
      "ĠíĹĮë²ķ": 4120,
      "ĠìķĦë¹ł": 4121,
      "Ġìĥģì²ĺ": 4122,
      "Ġë¬¼ëŁ¬": 4123,
      "Ġëĭ¤ìĪĺ": 4124,
      "ë©´ìłģ": 4125,
      "ëŀį": 4126,
      "ĠëĳĲìĤ°": 4127,
      "ĠìļĶê¸Ī": 4128,
      "ìĹ¬íĸī": 4129,
      "Ġì¶©ë¶ģ": 4130,
      "íķĢ": 4131,
      "ëĭ¤ìĿĮ": 4132,
      "EO": 4133,
      "ê²°ê³¼": 4134,
      "ĠíħĲ": 4135,
      "ĠìĥģìŀĦ": 4136,
      "ĠëģĿëĤĺ": 4137,
      "ĠìŀĦëªħ": 4138,
      "ĠìµľëĮĢíķľ": 4139,
      "íİľ": 4140,
      "Ġì§Ģìĥģ": 4141,
      "Ġê±°ë¡ł": 4142,
      "íĵ¨íĦ°": 4143,
      "ĠìĪĺíķĻ": 4144,
      "Ġì¶ĶìĦ¸": 4145,
      "ĳìĬ¤": 4146,
      "íĬ¹ë³Ħ": 4147,
      "ìĿ´íķĺ": 4148,
      "ê¹Ĳ": 4149,
      "Ġê³¼ìĹ°": 4150,
      "Ġë²Įìį¨": 4151,
      "ĠìľłëıĦ": 4152,
      "ìĿĺìŀ¥": 4153,
      "Ġë¬´ê¸°": 4154,
      "Ġê¹Ķ": 4155,
      "ĠìłĲìłĲ": 4156,
      "ìĿ´ìĥģ": 4157,
      "Ġëĭ¨ëıħ": 4158,
      "ë¦ĩ": 4159,
      "ĠíĨµê³Ħ": 4160,
      "Ġë¶Ģìŀ¥": 4161,
      "Ġì¡°ë¡Ģ": 4162,
      "ĠìĭĿìĤ¬": 4163,
      "ê¹Ŀ": 4164,
      "ë°±íĻĶìłĲ": 4165,
      "ĠìĿ¸ìłķë°Ľ": 4166,
      "ë¯¸ëŀĺ": 4167,
      "ĠíĪ¬ìĪĺ": 4168,
      "Ġë³´ì¡°": 4169,
      "Ġë¶Ģê³¼": 4170,
      "ê³µëıĻ": 4171,
      "ĠëĪĦë¦¬": 4172,
      "Ġê°Ģë¦¬": 4173,
      "ĠìĪĺë¹Ħ": 4174,
      "ë±ħ": 4175,
      "ëĥĲëĬĶ": 4176,
      "ĠíĶĦë¦¬ë¯¸ìĹĦ": 4177,
      "Ġì´Īë°ĺ": 4178,
      "Ġëĵ¤ëł¤": 4179,
      "ĠìĻĦë²½": 4180,
      "ĠìķĦëĭĲ": 4181,
      "Ġê°ķìĽĲëıĦ": 4182,
      "ĠíĶĮëłĪìĿ´": 4183,
      "ĠìŀĲìłĦê±°": 4184,
      "ED": 4185,
      "Ġì¹´ë©ĶëĿ¼": 4186,
      "ĠìłĦíķ´ì¡Į": 4187,
      "ĠâĹĭ": 4188,
      "ìĭľì²Ń": 4189,
      "ìĹ°ëĮĢ": 4190,
      "ĠëıĻë°ĺ": 4191,
      "Ġíĺ¹ìĿĢ": 4192,
      "Ġëĵ¤ìĸ´ìĺ¤": 4193,
      "ĠëıĻìĽĲ": 4194,
      "Ġê´ľì°®": 4195,
      "ìį": 4196,
      "Ġë¬µ": 4197,
      "ì²łëıĦ": 4198,
      "ìĪĺëıĦ": 4199,
      "ĠêµĲë¥ĺ": 4200,
      "Ġê°ķíķĺ": 4201,
      "Īľ": 4202,
      "ĠìĦ¤ìłķ": 4203,
      "ĠìĥĪë²½": 4204,
      "ĠíĻĢ": 4205,
      "Ġì²´ìľ¡": 4206,
      "Ġì§ĳíļĮ": 4207,
      "íĤ¤ë¡ľ": 4208,
      "Ġìłĳì´ī": 4209,
      "ĠëĮĢìļ°": 4210,
      "Ġê°ķìĿĺ": 4211,
      "Ġê´ĳìĹŃ": 4212,
      "Ġê³łê¸ī": 4213,
      "ĠëıħìŀĲ": 4214,
      "ĠëģĦ": 4215,
      "Ġì§Ģë°°": 4216,
      "ĠìĽĲëŀĺ": 4217,
      "ĠìķĦìī¬": 4218,
      "íķĺìĿ´": 4219,
      "Ġë¸ĶëŀĻ": 4220,
      "ĠíıŃë°ľ": 4221,
      "ĠíĨłì§Ģ": 4222,
      "Ġë¹Ħë°Ģ": 4223,
      "Ġê°Ģì¡Į": 4224,
      "Ġìĭľë²Ķ": 4225,
      "ĠìłĲìĪĺ": 4226,
      "Ġê²½ê³ł": 4227,
      "Ġ34": 4228,
      "ë£©": 4229,
      "ĠìĿĺëıĦ": 4230,
      "Ġê´Ģì¸¡": 4231,
      "ĠíĺĦê¸Ī": 4232,
      "ëĵ¯ìĿ´": 4233,
      "íļ¨ê³¼": 4234,
      "Ġê°ľëħĲ": 4235,
      "íħĶëłĪ": 4236,
      "ĠíĻľë°ľ": 4237,
      "Ġëĸ¨ìĸ´ì¡Į": 4238,
      "Ġê²°ë¡ł": 4239,
      "ĠìĿ¼ìłľ": 4240,
      "ë¶ģíķľ": 4241,
      "Ġë²ĶìľĦ": 4242,
      "ìĺģìĹħ": 4243,
      "ĠìŀĦìĽĲ": 4244,
      "ĠìĽĲìłĦ": 4245,
      "ĠìĿ´ëĤ´": 4246,
      "ì²łìĪĺ": 4247,
      "Ġì·¨ìķ½": 4248,
      "ĠëĮĢë¶ģ": 4249,
      "ĠëĤ³": 4250,
      "Ġì£¼ê´Ģ": 4251,
      "ĠíĨµíķ´ìĦľ": 4252,
      "Ġëĭµë³Ģ": 4253,
      "ìļ°ëĵľ": 4254,
      "ìķī": 4255,
      "ë¬ĺ": 4256,
      "ĠëģĪ": 4257,
      "Ġê³łíĸ¥": 4258,
      "Ġìĭľì²ŃìŀĲ": 4259,
      "Ġë¶Īë§Į": 4260,
      "ic": 4261,
      "Ġêµ¬ëĭ¨": 4262,
      "ê±´ê°ķ": 4263,
      "ê°ĲìĤ¬": 4264,
      "ĠìŀħíķĻ": 4265,
      "ĠìĽĶëĵľì»µ": 4266,
      "Ġê¹ľ": 4267,
      "36": 4268,
      "Ġë¯¸ë§Į": 4269,
      "¨ë²Ķ": 4270,
      "Ġê³ĦìĹ´ìĤ¬": 4271,
      "Ġì§Ħë³´": 4272,
      "ĠíĺĦìķĪ": 4273,
      "Ġì±Ħê¶Į": 4274,
      "Ġê·¸ëŁ¬ë©´": 4275,
      "ĠíĿ¬ìĥĿ": 4276,
      "ĠìŀĲì¹ĺ": 4277,
      "ĠìĹ´ë¦°ëĭ¤": 4278,
      "ĠìĦłíĺ¸": 4279,
      "Ġëĭ¨ìĿ¼": 4280,
      "Ġì²¨ëĭ¨": 4281,
      "Ġ38": 4282,
      "Ġìļ´ìļ©": 4283,
      "ëª½": 4284,
      "íĿĺ": 4285,
      "íĺĦìŀ¥": 4286,
      "ê¸°ìĹĲ": 4287,
      "Ġìĭłíķľ": 4288,
      "Ġê·¸ëĭĪê¹Į": 4289,
      "ĠíĹ¬": 4290,
      "ĠëĤ¬": 4291,
      "ĠìĤ¬íĩ´": 4292,
      "ë¯¸ìĪł": 4293,
      "ĠíĻĶëł¤": 4294,
      "Ġë¬¼ê±´": 4295,
      "íķĺê³ł": 4296,
      "ëŁ¬ë¦¬": 4297,
      "Ġë³´ëĥĪ": 4298,
      "ìĬ¤íĭ°": 4299,
      "ì¼ĢìĿ´": 4300,
      "Ġ5000": 4301,
      "ĠëĤ¼": 4302,
      "ìĤ¬ê±´": 4303,
      "âĨĴ": 4304,
      "ë¦¬ìĺ¤": 4305,
      "ìĥģíĻ©": 4306,
      "Ġì±ĦëĦĲ": 4307,
      "ìĦ¸ê¸°": 4308,
      "ĠëĮĢìĤ¬": 4309,
      "ĠìĿĳìĽĲ": 4310,
      "ìĹ¬ìĦ±": 4311,
      "ĠAI": 4312,
      "ĠìĿ¼ëĮĢ": 4313,
      "Ġë¯¸ìĨĮ": 4314,
      "Ġì²Ńìķ½": 4315,
      "ë¬¼ì§Ī": 4316,
      "Ġë®¤ì§Ģ": 4317,
      "ĠìłģìłĪ": 4318,
      "ĠìĽĢì§ģìĿ´": 4319,
      "Ġì§Ħìĭ¤": 4320,
      "ë£¸": 4321,
      "íĺ¸íħĶ": 4322,
      "ìĿ¸íĦ°": 4323,
      "ì¤ĳê³µìĹħ": 4324,
      "ëįĶëĿ¼": 4325,
      "Ġì¹´íİĺ": 4326,
      "Ġì¦Ŀìĭľ": 4327,
      "Ġëĥ": 4328,
      "ìĤ¬ìĭ¤": 4329,
      "ĠìĭľìĿ¸": 4330,
      "Ġë¯¼ìĽĲ": 4331,
      "Ġë§¹": 4332,
      "Ġíķ©ê²©": 4333,
      "ĠìĹħì¢ħ": 4334,
      "ìĤ¬ëŀĮ": 4335,
      "ĠãĢİ": 4336,
      "Ġì±ĶíĶ¼": 4337,
      "ë¹Į": 4338,
      "ĠìĿ´íĭĢ": 4339,
      "ĠíĤ¤ìĽĮ": 4340,
      "ë°ĶìĿ´ëŁ¬ìĬ¤": 4341,
      "ĠìĿ´ìĽĥ": 4342,
      "ĠêµŃëĤ´ìĻ¸": 4343,
      "ĠìĨĲíķ´": 4344,
      "Ġíĺĳìķ½": 4345,
      "Ġëª¨ìŀĦ": 4346,
      "ê¸°ë¡Ŀ": 4347,
      "ĠìĦłë°ķ": 4348,
      "ĠìºłíİĺìĿ¸": 4349,
      "ĠìĹ°ìĬµ": 4350,
      "ĠìĦłìŀĦ": 4351,
      "ë¦¬íĬ¸": 4352,
      "íĪ¬íĳľ": 4353,
      "ì¦ĪëĭĪìĬ¤": 4354,
      "ĠìłĦíķĺ": 4355,
      "Ġì¡°ìĸ¸": 4356,
      "ìĤ°ìĭľ": 4357,
      "ëĭ·": 4358,
      "ĠëıĻë£Į": 4359,
      "Ġìłķì²´": 4360,
      "Ġ:": 4361,
      "Ġíĺĳì¡°": 4362,
      "ëŀĢíŀĪ": 4363,
      "ĠíĻįì½©": 4364,
      "ĠìłĦê°ľ": 4365,
      "êµĲìĤ¬": 4366,
      "Ġëª»íķ´": 4367,
      "íĻĺìŀĲ": 4368,
      "Ġë°Ķê¿Ķ": 4369,
      "êµŃëĭ¹": 4370,
      "ĠìĤ¬ìķĪ": 4371,
      "ĠìĦłëıĦ": 4372,
      "ĠìĦ¸ìļ°": 4373,
      "ĠìĪĺì£¼": 4374,
      "ĠìĭĿëĭ¹": 4375,
      "ìĬ¤íı¬ì¸ł": 4376,
      "ĠíĥĦìĥĿ": 4377,
      "Ġìļ´íĸī": 4378,
      "ĠëıĻìĿ¼": 4379,
      "ĠìĪĺìĭľ": 4380,
      "Ġë¹ĦëĮĢ": 4381,
      "Ġë²ķë¬´ë¶Ģ": 4382,
      "ĠìĨĮìŀ¥": 4383,
      "ĠìĥĿê¸´": 4384,
      "Ġì²ľìķĪ": 4385,
      "Ġê·¸ê±´": 4386,
      "Ġ37": 4387,
      "Ġë¬´ìĥģ": 4388,
      "ëĤĺìļĶ": 4389,
      "ĠìĤ¬ë¬´ìĭ¤": 4390,
      "ìĤ¬ì§Ħ": 4391,
      "Ġ150": 4392,
      "ìĹ°ë§¹": 4393,
      "ĠìĨĮíĻĶ": 4394,
      "34": 4395,
      "ĠëĤŃ": 4396,
      "ĠíĮĲìłķ": 4397,
      "ĠìķĦê¹Į": 4398,
      "Ġë³¸ìĤ¬": 4399,
      "Ġê²°ìĬ¹": 4400,
      "Ġì¢ģ": 4401,
      "55": 4402,
      "Ġê³µíķŃ": 4403,
      "ì§ľë¦¬": 4404,
      "Ġìĸ´ìļ¸": 4405,
      "ĠìĤ´íİ´ë³´": 4406,
      "Ġë§Īê°Ĳ": 4407,
      "Ġë¿Įë¦¬": 4408,
      "ĠìķĦë¬´ë¦¬": 4409,
      "ĠìŀĦì§ģìĽĲ": 4410,
      "Ġë§¤ìŀħ": 4411,
      "Ġë§ĮëĤ¬": 4412,
      "Ġê·¸ë§Įíģ¼": 4413,
      "ĠëıĦìĭ¬": 4414,
      "ĠìķĦìĿ´ëĶĶìĸ´": 4415,
      "ë°Ń": 4416,
      "ëĵľëŁ¬": 4417,
      "ëª¸": 4418,
      "ĠìļĶìĨĮ": 4419,
      "ìĽ¨ìĸ´": 4420,
      "ĠìĦŃ": 4421,
      "ĠëĵľëŁ¬ëĤ¬": 4422,
      "Ġìĥģê´Ģ": 4423,
      "Ġå": 4424,
      "ĠíĽĮ": 4425,
      "ë»": 4426,
      "ĠëłĪìĿ´": 4427,
      "IS": 4428,
      "ë°¤": 4429,
      "37": 4430,
      "Ġë²ķìłķ": 4431,
      "Ġê²½ì£¼": 4432,
      "Ġë°Ł": 4433,
      "ĠìĥģìĥĿ": 4434,
      "ì§ĢëĮĢ": 4435,
      "ĠíıīìĥĿ": 4436,
      "Ġë©°": 4437,
      "ê²½ìŁģ": 4438,
      "Ġì§Ģíľĺ": 4439,
      "ĠíĥĢê²©": 4440,
      "Ġê³łìĨį": 4441,
      "ĠÂ´": 4442,
      "Ġê²°ìłľ": 4443,
      "ìłķìĥģ": 4444,
      "Ġìłľê±°": 4445,
      "ĠìĥģìľĦ": 4446,
      "km": 4447,
      "íħĶëłĪì½¤": 4448,
      "¼Ī": 4449,
      "Ġìłľìłķ": 4450,
      "íŀĺ": 4451,
      "ë¦¬ìĸ´": 4452,
      "ĠìĤ¬ìĹħìŀĲ": 4453,
      "le": 4454,
      "Ġë²Ħë¦¬": 4455,
      "Ġê¶Įë¦¬": 4456,
      "Ġ32": 4457,
      "ĠìĪĺë§İ": 4458,
      "ĠíĥĿìĭľ": 4459,
      "ìµľê·¼": 4460,
      "ê°ľìĦł": 4461,
      "ĠìľĦì£¼": 4462,
      "ĠìĽ¨": 4463,
      "Ġìĭ¤ìĪĺ": 4464,
      "íĮĲë§¤": 4465,
      "Ġì¡°ìļ©": 4466,
      "Ġì·¨ìŀ¬": 4467,
      "ĠëĲ©ëĭĪëĭ¤": 4468,
      "Ġìĭ¤íĹĺ": 4469,
      "ë°Ķë§Ī": 4470,
      "PG": 4471,
      "Ġëħ¸ì¶ľ": 4472,
      "Ġíİ¸ìĦ±": 4473,
      "ĠíİĺìĿ´ìĬ¤ë¶ģ": 4474,
      "Ġê·łíĺķ": 4475,
      "Ġì£¼ìµľ": 4476,
      "38": 4477,
      "Ġìĭ¸ìĽĢ": 4478,
      "Ġ2005": 4479,
      "ëģĹ": 4480,
      "ëĭĲ": 4481,
      "ĠìĤ´ë¦¬": 4482,
      "ìĭ¬ìĤ¬": 4483,
      "ìŀĲìľł": 4484,
      "ĠìĦ±ëĤ¨": 4485,
      "Ġ400": 4486,
      "Ġë³´ìķĪ": 4487,
      "IC": 4488,
      "Ġìĥ¤": 4489,
      "Ġì¥Ĳ": 4490,
      "Ġì¶ĶìĦĿ": 4491,
      "Ġê¶Įíķľ": 4492,
      "2000": 4493,
      "Ġâĸ¶": 4494,
      "ëłĪê¸°": 4495,
      "Ġë¹Ħíĸī": 4496,
      "ëŁŃìĭľ": 4497,
      "ìł¤": 4498,
      "Ġê·¸ëł¤": 4499,
      "ë¡¤": 4500,
      "ìķĦìĭľìķĦ": 4501,
      "ê¹ĮìļĶ": 4502,
      "ĠíĬ¹íĹĪ": 4503,
      "ĠìĦ¸ëł¥": 4504,
      "Ġíģ¬ë¦¬ìĬ¤": 4505,
      "ĠëĮĢíķĻìĥĿ": 4506,
      "ìĨĮë¹Ħ": 4507,
      "Ġë¯¸ëĶĶìĸ´": 4508,
      "ëĭĪìĸ´": 4509,
      "ë©¸": 4510,
      "48": 4511,
      "íĶĦë¦¬ì¹´": 4512,
      "ĠìĹ¬ìĪĺ": 4513,
      "ĠíĺķìĭĿ": 4514,
      "ĠìķĦìĺĪ": 4515,
      "ĠìľłìĹĶ": 4516,
      "Ġê±°ì§ĵ": 4517,
      "ĠëĶ°ë¡ľ": 4518,
      "íĺģëªħ": 4519,
      "ê¸°ëĬ¥": 4520,
      "íĶĶ": 4521,
      "Ġê²½ê³Ħ": 4522,
      "ë²Ķì£Ħ": 4523,
      "ĠìĿ´ìĻ¸": 4524,
      "Ġ3000": 4525,
      "Ġìłľëª©": 4526,
      "Ġë¬´ìĭľ": 4527,
      "ĠëĪĦêµ°ê°Ģ": 4528,
      "Ġë¬¸ìŀĲ": 4529,
      "Ġë¬¶": 4530,
      "Ġë¶Īê°ĢíĶ¼": 4531,
      "ì¡°ì¹ĺ": 4532,
      "ìĿ¸ëł¥": 4533,
      "ê³µìĹ°": 4534,
      "Ġíģ¬ê¸°": 4535,
      "Ġê°ľë°©": 4536,
      "ĠìĿ´ìĬĪ": 4537,
      "ĠìĿ´ë¥¸ë°Ķ": 4538,
      "ĠíĹĪë¦¬": 4539,
      "Ġëĭ¨ìĨį": 4540,
      "ing": 4541,
      "ĠêµĲìľ¡ë¶Ģ": 4542,
      "ĠìĺĪìłĦ": 4543,
      "Ġìĺ®ê²¨": 4544,
      "ĠìĦľë¯¼": 4545,
      "ìĺµ": 4546,
      "ë¬´ìĹŃ": 4547,
      "Ġê°ľë³Ħ": 4548,
      "ĠìĿ´ê±´": 4549,
      "ëĨĪ": 4550,
      "ĠìĨĲìĭ¤": 4551,
      "ìĬ¤íĨł": 4552,
      "Ġì¤Ħìĸ´": 4553,
      "Ġê°ľìŀħ": 4554,
      "Ġì§ĦìĪł": 4555,
      "ĠíĬ¸ëłĮ": 4556,
      "Ġíİ¸ì§Ģ": 4557,
      "ĠìłĦë¶Ģ": 4558,
      "ĠSNS": 4559,
      "ëĮĢìłĦ": 4560,
      "ĠëĦ¤íĬ¸ìĽĮíģ¬": 4561,
      "Ġë¶ĢëĮĢ": 4562,
      "íĶĦë¡ľê·¸ëŀ¨": 4563,
      "ĠìłĢëł´": 4564,
      "íĭ¸": 4565,
      "ëŀĮíļĮ": 4566,
      "Ġê°ľìĦ±": 4567,
      "Ġíĳľìĭľ": 4568,
      "he": 4569,
      "ĠCJ": 4570,
      "ìķĹ": 4571,
      "Ġìŀ¬íĮĲë¶Ģ": 4572,
      "Ġì¹´ì¹´ìĺ¤": 4573,
      "ê¸°ê¸Ī": 4574,
      "ĠíıŃëł¥": 4575,
      "ĠìłĦê³µ": 4576,
      "Ġë¶Ģìĭ¤": 4577,
      "ëĳĳ": 4578,
      "ëĤĺìĿ´": 4579,
      "ĠìŀĲê·¹": 4580,
      "ë´Ĳìķ¼": 4581,
      "Ġê°ľìĦ¤": 4582,
      "ĠíķľêµŃìĿ¸": 4583,
      "Ġíļ¡": 4584,
      "ìĸ´ì¡Į": 4585,
      "Ġìŀ¬ëĤľ": 4586,
      "ĠìłĦìĽĲ": 4587,
      "ìĺ¤ëĬĺ": 4588,
      "ĠìĹī": 4589,
      "ìļ´ìļ©": 4590,
      "Ġìĭ¤ëĤ´": 4591,
      "ĠìĤ¬ìĿ´íĬ¸": 4592,
      "ìŀł": 4593,
      "íĹ¤": 4594,
      "Ġëª°ëŀĲ": 4595,
      "Ġìĥģíĺ¸": 4596,
      "Ġìĸ¸ìĸ´": 4597,
      "Ġë¶Ħë¦¬": 4598,
      "ĠëĬĲëĤĦ": 4599,
      "ĠìķĦëĭĻ": 4600,
      "ĠìĿ´ìļ©ìŀĲ": 4601,
      "ê¼Ī": 4602,
      "Ġì«ĵ": 4603,
      "Ġì»¬ëŁ¬": 4604,
      "Ġê³µìĽĲ": 4605,
      "ĠìĪĺìĭŃ": 4606,
      "Ġì°¾ìķĦê°Ģ": 4607,
      "ì¡¸": 4608,
      "Ġëħ¸ìĤ¬": 4609,
      "ìĹ¬ìķ¼": 4610,
      "Ġíĺ¸íĿ¡": 4611,
      "39": 4612,
      "Ġì´ĪëĮĢ": 4613,
      "Ġíĺ¸ì£¼": 4614,
      "Ġë°ľíľĺ": 4615,
      "ĠìĿ´ëŀĺ": 4616,
      "íĺĳìķ½": 4617,
      "ìī½": 4618,
      "Ġì»´íĵ¨íĦ°": 4619,
      "Ġë¶Ģì²ĺ": 4620,
      "ê¸°íļį": 4621,
      "Ġì¶ľìŀħ": 4622,
      "ĠíĹĪê°Ģ": 4623,
      "Ġì§ĢìłĲ": 4624,
      "ĠìĻĢìĦľ": 4625,
      "ìĿ¸ì²ľ": 4626,
      "Ġíķ´ëªħ": 4627,
      "Ġëĵľë¦¬": 4628,
      "ìłķê·ľì§ģ": 4629,
      "ĠíĴįë¶Ģ": 4630,
      "Ġë¶ĦëªħíŀĪ": 4631,
      "Ġëļľ": 4632,
      "Ġê°Ħëĭ´íļĮ": 4633,
      "íĮİ": 4634,
      "ĠìĦłëĳĲ": 4635,
      "Ġìµľìļ°": 4636,
      "Ġê·¸ì³¤": 4637,
      "ìĸĢ": 4638,
      "Ġë³´ìĻĦ": 4639,
      "Ġìŀ¬ê°ľ": 4640,
      "Ġê¹Ģì¢ħ": 4641,
      "ëĩ": 4642,
      "ë§Ĳë¡ľ": 4643,
      "Ġìĭľë¦¬ì¦Ī": 4644,
      "ìĻľ": 4645,
      "ĠìĿ¸ìĽĲ": 4646,
      "ĠìĦ¸ì¢ħ": 4647,
      "ĠìĦłìĤ¬": 4648,
      "íĮĲìĤ¬": 4649,
      "ëłĪìĿ´ëĵľ": 4650,
      "ĠìŀĦê¸°": 4651,
      "ëįľ": 4652,
      "ĠìĽĲìŀĲ": 4653,
      "ĠìĿ´íĸī": 4654,
      "Ġëĭ¤ëħĢ": 4655,
      "ĠìĪľìľĦ": 4656,
      "ĠìĿ´ìĬ¹": 4657,
      "Ġêº": 4658,
      "ìŀĲê³ł": 4659,
      "ĠìĿĮìĦ±": 4660,
      "ëŀĢëĵľ": 4661,
      "ĠêµŃë°©ë¶Ģ": 4662,
      "ĠìĨĮëħĢ": 4663,
      "Ġê´ĳì£¼ìĭľ": 4664,
      "ë¬¸íļĮ": 4665,
      "Ġë¶Ħë¥ĺ": 4666,
      "ĠìĦłë°°": 4667,
      "ë²¼": 4668,
      "ĠëĳĲëł¤": 4669,
      "ìĪľìľĦ": 4670,
      "ĠëĨįê°Ģ": 4671,
      "www": 4672,
      "ĠëĤĺìĦ¤": 4673,
      "Ġë°±ìĭł": 4674,
      "ĠìķĪíĮİ": 4675,
      "Ġì§ķìĹŃ": 4676,
      "Ġë³´ëĤ¸": 4677,
      "ìĿĺìĭĿ": 4678,
      "Ġì¤Ģëĭ¤": 4679,
      "ê³µê°ľ": 4680,
      "íķĻìĽĲ": 4681,
      "ìķĦì°¨": 4682,
      "ìĬ¤íĶĮëłĪìĿ´": 4683,
      "ĠíŀĲ": 4684,
      "Ġìıł": 4685,
      "Ġì§Ħë£Į": 4686,
      "ĠìķĪë³´": 4687,
      "ì¢ħìĭľ": 4688,
      "ê´ĳì£¼": 4689,
      "ë³´ê±´": 4690,
      "Ġì»¸": 4691,
      "íŀĮëĭ¤": 4692,
      "Ġë¬´ëł¤": 4693,
      "ë°į": 4694,
      "Ġìĸ´ì©Į": 4695,
      "ĠíĨµë³´": 4696,
      "Ġë¶ĢìĤ°ìĭľ": 4697,
      "Ġëĸ¼": 4698,
      "ĠíĻĶë©´": 4699,
      "Ġê³łêµĲ": 4700,
      "ìĹł": 4701,
      "Ġ39": 4702,
      "ĠëĮĢëĭ¨": 4703,
      "ì§ĢëĬ¥": 4704,
      "ĠìĹ¬ìľł": 4705,
      "ìłĦìŁģ": 4706,
      "ìħĭ": 4707,
      "Ġê¸°ê³Ħ": 4708,
      "49": 4709,
      "Ġë°ľìĤ¬": 4710,
      "Ġìĺ¬ëĿ¼ê°Ģ": 4711,
      "íķĻìĬµ": 4712,
      "íĥĢìļ´": 4713,
      "ìķĪìłķ": 4714,
      "Ġíİ¸ë¦¬": 4715,
      "ë¬´íĺĦ": 4716,
      "ë¨¸ë¦¬": 4717,
      "ĠìłķìĽĲ": 4718,
      "Ġê¹ĢìĦ±": 4719,
      "Ġìĭ¤ë¬´": 4720,
      "Ġê¸°ëĮĢê°Ĳ": 4721,
      "ĠìłĢìŀĲ": 4722,
      "Ġëĸ¨ìĸ´ìł¸": 4723,
      "Ġê²Įëĭ¤ê°Ģ": 4724,
      "Ġ197": 4725,
      "Ġë§¤ëĭ¬": 4726,
      "ĠëĤĺìķĦê°Ģ": 4727,
      "Ġìĸ´ëł¤ìĽĮ": 4728,
      "ê³µìłķ": 4729,
      "ĠëĦĲ": 4730,
      "ĠëŁ°": 4731,
      "ĠìĦľë¥ĺ": 4732,
      "ëį°ìĿ´íĦ°": 4733,
      "Ġëª¨ìľ¼": 4734,
      "Ġì§ķê³Ħ": 4735,
      "ìĦ¸íĬ¸": 4736,
      "47": 4737,
      "ĠíĻĶìŀ¬": 4738,
      "ĠíĨłëĮĢ": 4739,
      "ìŀĳìĹħ": 4740,
      "32": 4741,
      "ì²©": 4742,
      "ëķħ": 4743,
      "Ġìĭ¬ìĿĺ": 4744,
      "ĠìĦĿìľł": 4745,
      "ë¦¬ìĬ¤íĬ¸": 4746,
      "ĠëŃĺ": 4747,
      "Ġê³łë°ľ": 4748,
      "Ġë°°ìłľ": 4749,
      "ĠÂ·": 4750,
      "ĠìĿ´ìĸ´ì¡Į": 4751,
      "Ġëħ¹ìĥī": 4752,
      "Ġë¶Ģëĭ¹": 4753,
      "ion": 4754,
      "Ġë¬´ë¦": 4755,
      "íĨ±": 4756,
      "Ġì§Īë³ĳ": 4757,
      "ê³¼ìŀ¥": 4758,
      "ĠíĺĦíĸī": 4759,
      "ì¹ľëĭ¤": 4760,
      "ê³łìĨį": 4761,
      "ë£¨ìħĺ": 4762,
      "Ġê²½ëł¥": 4763,
      "ĠìĿ´ëķĮ": 4764,
      "ìķĦëĭĪ": 4765,
      "ìĮ": 4766,
      "ĠìķĦë¥´": 4767,
      "ĠëıĻìĥĿ": 4768,
      "ĠíĻķì¶©": 4769,
      "ĠëĤłìĶ¨": 4770,
      "ĠìķĮëł¤ì§Ħ": 4771,
      "ĠëĽ°ìĸ´ëĤľ": 4772,
      "Ġê³łëł¹": 4773,
      "ĠGS": 4774,
      "Ġ65": 4775,
      "ĠìĥĿê²¼": 4776,
      "ë®¤ëĭĪ": 4777,
      "Ġê¹Ģíĥľ": 4778,
      "ĠìķĦìĿ´íħľ": 4779,
      "íĿĲ": 4780,
      "ìŀĸìķĦ": 4781,
      "Ġë³´ê³ł": 4782,
      "Ġìıĺ": 4783,
      "Ġê¼¼": 4784,
      "ë³µíķ©": 4785,
      "Ġê°Ħëĭ¨": 4786,
      "Ġìļ°ì£¼": 4787,
      "ĠëĤĺì¤ĳ": 4788,
      "Ġëĭ´ê¸´": 4789,
      "ĠìĦ¸ìĽĮ": 4790,
      "ìĵ¸": 4791,
      "Ġì§ģìłĦ": 4792,
      "ëģĪ": 4793,
      "Ġì¡°ìĭ¬": 4794,
      "íĮ¬": 4795,
      "Ġê°Ĵ": 4796,
      "ĠìĺĪìķ½": 4797,
      "ë²Ħë¦°": 4798,
      "ĠìĸĳêµŃ": 4799,
      "ĠëĤ´ë¦°": 4800,
      "Ġê·¸ê³³": 4801,
      "Ġê°ĲëıĻ": 4802,
      "ĠëĦ¥": 4803,
      "ĦìĥĪ": 4804,
      "Ġëĭ¨ìľĦ": 4805,
      "46": 4806,
      "Ġë§Īì£¼": 4807,
      "ĠëģĿëĤľ": 4808,
      "ì²´ìłľ": 4809,
      "êµĲìĪĺ": 4810,
      "Ġíĺ¼ëŀĢ": 4811,
      "ĠëĨįì´Į": 4812,
      "ĠìĥĿì¡´": 4813,
      "ĠìĹ°ìĺĪ": 4814,
      "íļĮê´Ģ": 4815,
      "ĠëıĻëĦ¤": 4816,
      "Ġìłķê·ľ": 4817,
      "Ġëıĭ": 4818,
      "Ġë¶ī": 4819,
      "ĠëĪĦìłģ": 4820,
      "Ġêº¾": 4821,
      "Ġëĵ¤ìĸ´ìĦľ": 4822,
      "ĠíıĲê¸°": 4823,
      "ĠìĭľëĤ´": 4824,
      "ìķ¼ë§Ĳë¡ľ": 4825,
      "ĠëĲľëĭ¤ëĬĶ": 4826,
      "Ġíĺ¸ëĤ¨": 4827,
      "Ġëĭ¤íĸī": 4828,
      "Ġìłľì£¼ëıĦ": 4829,
      "Ġëª°ëł¤": 4830,
      "ĠíĻĶíķĻ": 4831,
      "ĠìĿ´ìłķ": 4832,
      "Ġì¢ħë£Į": 4833,
      "Ġìŀħì§Ģ": 4834,
      "Ġë°Ķë¥¸": 4835,
      "Ġìķŀìŀ¥": 4836,
      "ĠìĬĪíį¼": 4837,
      "Ġì´Īê³¼": 4838,
      "ë¸Įë¦¬": 4839,
      "ìĹ¬ìĦľ": 4840,
      "ë°©ìķĪ": 4841,
      "Ġëº": 4842,
      "Ġë°±íĻĶìłĲ": 4843,
      "ì¡°ì§ģ": 4844,
      "ĠìĿĺíķľ": 4845,
      "FC": 4846,
      "--": 4847,
      "ìĺģìŀ¥": 4848,
      "ê²Ģì°°": 4849,
      "ĠìŀĲìĭĿ": 4850,
      "Ġíĺ¹ìĭľ": 4851,
      "Ġì¹¨ì²´": 4852,
      "ĠíĭĪ": 4853,
      "ĠíĢ": 4854,
      "Ġëĭ¤ìĦ¯": 4855,
      "ĠëĤ´ìĿ¼": 4856,
      "ç¾": 4857,
      "ëĭĪíĦ°": 4858,
      "ĠìĹ´ìłķ": 4859,
      "Ġìŀ¬ë¬´": 4860,
      "Ġì²ĺë¶Ħ": 4861,
      "ĠìķĦìļ°": 4862,
      "Ġíİ´": 4863,
      "ĠëĮĢë¦¬": 4864,
      "Ġìľ¼": 4865,
      "Ġê²°íķ©": 4866,
      "ìł¸ìķ¼": 4867,
      "ë¹ĦìķĦ": 4868,
      "Ġë°ĶìĿ´ìĺ¤": 4869,
      "íıīê·ł": 4870,
      "ëį´": 4871,
      "Ġìĺ¬ë¦°": 4872,
      "Ġì·¨ëĵĿ": 4873,
      "ĠëĮĢì²ĺ": 4874,
      "Ġì¾Į": 4875,
      "ĠìľĦìķĪ": 4876,
      "ĠìłĪê°Ĳ": 4877,
      "Ġêµ¬ë¶Ħ": 4878,
      "Ġì¤ĳêµ¬": 4879,
      "ĠíĨµìłľ": 4880,
      "ìĦ¤íĮħ": 4881,
      "TE": 4882,
      "ëī´ìĬ¤": 4883,
      "Ġì°©ìļ©": 4884,
      "Ġìķ¨ë²Ķ": 4885,
      "Ġëį®": 4886,
      "Ġì²łëıĦ": 4887,
      "CD": 4888,
      "Ġëĵ±ê¸ī": 4889,
      "Ġ48": 4890,
      "Ġê²Ģìĥī": 4891,
      "ìĭľìĺ¤": 4892,
      "ĠìĿ´ê¸°": 4893,
      "Ġì¶Ķêµ¬": 4894,
      "ĠëĨĴìĺĢ": 4895,
      "ĠíĪ¬ëªħ": 4896,
      "ĠíĮĮíĬ¸": 4897,
      "ì§Ģë²ķ": 4898,
      "Ġì°¬ìĦ±": 4899,
      "ë§Īë¦¬": 4900,
      "65": 4901,
      "ë³´ìĿ´": 4902,
      "ê¹Ķ": 4903,
      "Ġì±ĦíĥĿ": 4904,
      "kr": 4905,
      "êµŃíļĮ": 4906,
      "ĠíĻĶìŀ¥íĴĪ": 4907,
      "ëĮĢìĤ¬": 4908,
      "Ġì°½ì¡°": 4909,
      "Ġìĺģìĸĳ": 4910,
      "Ġë§ŀì¶Ķ": 4911,
      "ĠìłĦíĪ¬": 4912,
      "ìķĦëĤ´": 4913,
      "ìłĦìĭľ": 4914,
      "ëĩ¨": 4915,
      "ìĦ¼íĬ¸": 4916,
      "ou": 4917,
      "Ġê±´ëĦĪ": 4918,
      "Ġìĺ¤ë°Ķë§Ī": 4919,
      "íĶ¼íķ´": 4920,
      "Ġë¶Ħëħ¸": 4921,
      "Ġë¸Įë¦¬": 4922,
      "ì¶Ķì§Ħ": 4923,
      "Ġìľłì¶ľ": 4924,
      "Ġëĭ«": 4925,
      "Ġêº¼ëĤ´": 4926,
      "Ġê±°ëĮĢ": 4927,
      "Ġëħ¸íĽĦ": 4928,
      "Ġëĭ´ë°°": 4929,
      "ĠìĦ¤ëĵĿ": 4930,
      "ĠìĿ´ìĤ¬ìŀ¥": 4931,
      "ìĹħìŀĲ": 4932,
      "ë²Ħëł¸": 4933,
      "íķĺìļ°ìĬ¤": 4934,
      "ê¼¬": 4935,
      "ìĿ¸ìĤ¬": 4936,
      "ëĭ¤ë¦¬": 4937,
      "ìŀ¥ì¹ĺ": 4938,
      "ĠìºłíĶĦ": 4939,
      "ë°©ìĭĿ": 4940,
      "Ġë°ĶìĿ´ëŁ¬ìĬ¤": 4941,
      "Ġëª»íķł": 4942,
      "ĠìłĢì§Ģ": 4943,
      "Ġì£¼ìĿĺ": 4944,
      "Ġëª¨ìĥī": 4945,
      "ê³¨íĶĦ": 4946,
      "ĠìĨĮì¤ĳ": 4947,
      "Ġê·¼ë³¸": 4948,
      "Ġëª½": 4949,
      "ëĵ±ë¡Ŀ": 4950,
      "äº": 4951,
      "Ġê³ģ": 4952,
      "ĠìĪĺìĪĺë£Į": 4953,
      "Ġê³ĦìĤ°": 4954,
      "Ġë§¤ë§¤": 4955,
      "ĠëıĮìķĦìĺ¤": 4956,
      "ĠíĻĪëŁ°": 4957,
      "Ġìĭ¤ìĭľê°Ħ": 4958,
      "ĠìĽ¹": 4959,
      "ĠìĿĺë¬¸": 4960,
      "ìľĦíĦ°": 4961,
      "ëĴĢ": 4962,
      "Ġë§Īì¹¨": 4963,
      "Ġê²°ì½Ķ": 4964,
      "ëĮĢíķľ": 4965,
      "ìŀĺ": 4966,
      "Ġêµ¬íĺĦ": 4967,
      "Ġë³´ê¸ī": 4968,
      "ìĹĲìĬ¤": 4969,
      "Ġì¹Ń": 4970,
      "ĠíķĻìĽĲ": 4971,
      "ĠíĶ¼íķĺ": 4972,
      "ëĤĺë§Ī": 4973,
      "ìĿĺìŀĲ": 4974,
      "Ġìĺģìŀħ": 4975,
      "íķłì§Ģ": 4976,
      "Ġì§ĪíĻĺ": 4977,
      "Ġë§ĮëĤ¨": 4978,
      "ĠìĹ´ëł¸": 4979,
      "ĠíĴĪëª©": 4980,
      "ĠëĮĢê²°": 4981,
      "ë´īìĤ¬": 4982,
      "ëĩĮ": 4983,
      "Ġìĸ´ì°Į": 4984,
      "ìłķìĭł": 4985,
      "´ëĵľ": 4986,
      "ìĿĮìķħ": 4987,
      "ĠíĪ¬ìĸ´": 4988,
      "Ġë¬¸ìłľìłĲ": 4989,
      "Ġë°°íĦ°ë¦¬": 4990,
      "Ġíİ¸ìķĪ": 4991,
      "å¤": 4992,
      "Ġê³µíı¬": 4993,
      "Ġëľ¨ê±°ìļ´": 4994,
      "Ġì±ĶíĶ¼ìĸ¸": 4995,
      "ë¡ľëĵľ": 4996,
      "Ġì¢ħêµĲ": 4997,
      "Ġê¸Īë©Ķëĭ¬": 4998,
      "Ġìķ¼ê¶Į": 4999,
      "Ġë¯¸ìĦ¸ë¨¼ì§Ģ": 5000,
      "44": 5001,
      "ĠìĹ°ê·¹": 5002,
      "Ġì°¸ê°ĢìŀĲ": 5003,
      "ĠíıĲìĩĦ": 5004,
      "ĠëĮĢê±°": 5005,
      "ìłĦíĺķ": 5006,
      "ĠíħĲëį°": 5007,
      "Ġë¹łì§Ģ": 5008,
      "Ġë¯¼ì¡±": 5009,
      "Ġë¹Ħë¦¬": 5010,
      "ĠíļĮëĭ´": 5011,
      "ëį©": 5012,
      "ì¿¨": 5013,
      "ìłĦê¸°": 5014,
      "Ġíķ©ë¦¬": 5015,
      "ë¥´ìĭł": 5016,
      "ĠìķŀëĳĶ": 5017,
      "Ġë¶ĢìĦľ": 5018,
      "ëĦ£": 5019,
      "Ġìĸ´ìłľ": 5020,
      "ĠìĿĺíļĮ": 5021,
      "ìļ©íĴĪ": 5022,
      "ìķĪíĥĢ": 5023,
      "ĠìĻ¼": 5024,
      "ë¶Ħìĸĳ": 5025,
      "Ġëªħëł¹": 5026,
      "ĠìķĦë¬´ëŁ°": 5027,
      "ĠìłĲìľł": 5028,
      "Ġ55": 5029,
      "Ġë¬¼ë¦¬": 5030,
      "íĪ¬ìĸ´": 5031,
      "ëĺĲ": 5032,
      "ĠëĵľëŁ¬ëĤĺ": 5033,
      "ê¶ĮìŀĲ": 5034,
      "Ġë§¤ì¶ľìķ¡": 5035,
      "Ġê¹Ģíķ´": 5036,
      "ĠìķĮëł¤ìł¸": 5037,
      "ĠìħĢ": 5038,
      "íĥĢìŀĦ": 5039,
      "Ġë®¤ì§Ģì»¬": 5040,
      "íķľëį°": 5041,
      "ĠëĤ¨ëħĢ": 5042,
      "ë³´ì¦Ŀ": 5043,
      "Ġíıīì°½": 5044,
      "ĠëĵľëŁ¬ëĤ´": 5045,
      "ë§ĪëĶĶ": 5046,
      "ì¿Ħ": 5047,
      "ìŀĳìļ©": 5048,
      "ëģ¼ë¦¬": 5049,
      "ĠëªħíĻķ": 5050,
      "ĠìłĦì£¼": 5051,
      "ìłķëĭ¹": 5052,
      "Ġì§ģë¬´": 5053,
      "Ġê±¸ë¦¬": 5054,
      "ĠëģĿëĤ´": 5055,
      "ĠëıĻë¶Ģ": 5056,
      "Ġë©´ìłĳ": 5057,
      "Ġë¡ľë´ĩ": 5058,
      "ĠìĹ¬ê±´": 5059,
      "ĠìĥģìĬ¹ìĦ¸": 5060,
      "Ġì£¼ì£¼": 5061,
      "ë³ĢíĻĶ": 5062,
      "Ġë¦¬ê·¸": 5063,
      "Ġê°ľíĨµ": 5064,
      "Ġëª©ìĪ¨": 5065,
      "ìĺ¤íĶĦ": 5066,
      "ëĤĺëĭ¤": 5067,
      "Ġë³µìŀ¡": 5068,
      "ĠìĤ¬ë²ķ": 5069,
      "ëģĦëŁ¬": 5070,
      "ëĨĢìĿ´": 5071,
      "ìĤ¬ìĿ´": 5072,
      "ĠíĨµìĥģ": 5073,
      "ìķĦë¦¬": 5074,
      "Ġì¡°ëªħ": 5075,
      "ĠëıĻìĺģìĥģ": 5076,
      "Ġë¹Ħì¦ĪëĭĪìĬ¤": 5077,
      "Ġêµ¬ìĥģ": 5078,
      "ĠìľłìĤ¬": 5079,
      "Ġì¶¤": 5080,
      "ĠëĬĲê¼Ī": 5081,
      "ĠìłģìŀĲ": 5082,
      "ĠíĬĢ": 5083,
      "Ġê¹ĬìĿ´": 5084,
      "Ġë¬´ê²Į": 5085,
      "ê¸īìĭĿ": 5086,
      "ĠìŁģ": 5087,
      "ĠìĬ¤íĬ¸ëłĪìĬ¤": 5088,
      "Ġ2004": 5089,
      "ĠíĿī": 5090,
      "íıīíĻĶ": 5091,
      "íĮ©": 5092,
      "ĠìĿ¼ê°ģ": 5093,
      "Ġì§Ģì§Ģìľ¨": 5094,
      "ĠìĤ°íķĺ": 5095,
      "ìĪĺì§Ģ": 5096,
      "ĠìĦľêµ¬": 5097,
      "ĠíĿ¥ë¯¸": 5098,
      "ìĹħë¬´": 5099,
      "Ġì§ĢìĪĺ": 5100,
      "Ġë¹ĦìłĦ": 5101,
      "ëĮĢíĨµëł¹": 5102,
      "ħëĭĪëĭ¤": 5103,
      "ĠëıĻì°¸": 5104,
      "ĠëªħíĴĪ": 5105,
      "ĠìĦłë³´ìĺĢ": 5106,
      "ëĤľëĭ¤": 5107,
      "ê³µìĿ¸": 5108,
      "ĠìĦłì¶ľ": 5109,
      "ëį°ìĿ´": 5110,
      "Ġë¬´ë¦İ": 5111,
      "Ġìĭ¬ìŀ¥": 5112,
      "ĠìĦ±ëªħ": 5113,
      "ĠëĤ´ëĤ´": 5114,
      "ìĭŃëĭĪê¹Į": 5115,
      "ĠSBS": 5116,
      "ĠìĦ±ëĬ¥": 5117,
      "ë¡ľìĬ¤": 5118,
      "Ġì§ĢëĤ´": 5119,
      "ê¿Ī": 5120,
      "Ġëħ¼ë¦¬": 5121,
      "ĠëĮĢë§Į": 5122,
      "ì¢ĭ": 5123,
      "Ġê¹¨ëģĹ": 5124,
      "ì¨": 5125,
      "Ġìį": 5126,
      "íķĺìļ°": 5127,
      "ëĿ¼ê³łìļĶ": 5128,
      "Ġì§Ģíķĺì²ł": 5129,
      "Ġê·¸ëĤł": 5130,
      "ĠìĦŀ": 5131,
      "ĠìĦ¤ë¹Ħ": 5132,
      "Ġë§ĮëĤł": 5133,
      "ĠìľłëĭĪ": 5134,
      "ê³Ħì¸µ": 5135,
      "Ġê°Ģê³Ħ": 5136,
      "Ġìļ©ìĿ¸": 5137,
      "ĠìĹ°ëł¹": 5138,
      "ĠíħĮë§Ī": 5139,
      "ãİı": 5140,
      "Ġìĥģë¬´": 5141,
      "ì±ħìŀĦ": 5142,
      "Ġì½ĺìĦľíĬ¸": 5143,
      "ì°¾": 5144,
      "et": 5145,
      "ê¸ĭ": 5146,
      "ĠìĿ´ìĸ´ì§Ī": 5147,
      "ê¸°ìĤ¬": 5148,
      "ĠìĪĺëĭ¨": 5149,
      "ëł·": 5150,
      "Ġë§Īì¹ľ": 5151,
      "íį¼ìĬ¤": 5152,
      "Ġë³´ì¦Ŀ": 5153,
      "Ġëļ«": 5154,
      "Ġë³¸ë¶Ģ": 5155,
      "ê¸°ìŀĲ": 5156,
      "Ġìĭľê¸ī": 5157,
      "Ġì£¼ìľĦ": 5158,
      "ëĮĢì²´": 5159,
      "Ġëª¨ë¥¸ëĭ¤": 5160,
      "ëĮĢê°ķ": 5161,
      "ĠëĨĢìĿ´": 5162,
      "Ġì¤Ģê³µ": 5163,
      "Ġì§ĢëıĦë¶Ģ": 5164,
      "Ġæ": 5165,
      "ìĹĲê²ĮìĦľ": 5166,
      "Ġìľłê¸°": 5167,
      "ĠìĹ¬ìĿĺ": 5168,
      "Ġë¬¼ë¥ĺ": 5169,
      "ĠíĻĺìľ¨": 5170,
      "Ġëª¨ìķĺ": 5171,
      "ĠìĻĦìłĦ": 5172,
      "ìŀ¬ìłķ": 5173,
      "ê±°ëł¸": 5174,
      "Ġìĺ¤ë¦¬": 5175,
      "Ġì§ĳìķĪ": 5176,
      "ĠìĤ´ìĿ¸": 5177,
      "ĠìĿ´íĥĪë¦¬ìķĦ": 5178,
      "ĠëħĢ": 5179,
      "ìĨĮìŀ¥": 5180,
      "ĠíĮĮê²¬": 5181,
      "íģ´ëŁ½": 5182,
      "Ġìŀ¥íķĻ": 5183,
      "Ġëĭ¹ìĹ°íŀĪ": 5184,
      "Ġë´Ĳìķ¼": 5185,
      "Ġì¶Ķìĸµ": 5186,
      "Ġ/": 5187,
      "Ġì§Ģì¼ľë³´": 5188,
      "ĠíĬ¸ìľĦíĦ°": 5189,
      "ì§ĦíĿ¥": 5190,
      "ìĹĲëĭ¤": 5191,
      "Ġì¡°íķ©ìĽĲ": 5192,
      "Ġëª¨ìŀĲ": 5193,
      "ìłķìĽĲ": 5194,
      "Ġë¸ĮëĿ¼ì§Ī": 5195,
      "ĠìĤ¬ìľł": 5196,
      "ĠíĮĮìĹħ": 5197,
      "ĠëĵĿìłĲ": 5198,
      "Ġì°©ìĪĺ": 5199,
      "ìĪĺìĦĿ": 5200,
      "Ġì§ĢìĹ°": 5201,
      "Ġíģ´ëŀĺ": 5202,
      "Ġíĳľì¤Ģ": 5203,
      "ê¸Īìķ¡": 5204,
      "ìĿ´ìłľ": 5205,
      "ë´Ħ": 5206,
      "Ġë²Įìĸ´ì§Ģ": 5207,
      "Ġê°ľë´ī": 5208,
      "Ġê³§ë°Ķë¡ľ": 5209,
      "ìħī": 5210,
      "Ġìľłëł¥": 5211,
      "Ġìłķì°©": 5212,
      "ìĥ¤": 5213,
      "ĠìĦ±ë¶Ħ": 5214,
      "ìĪĺìĤ°": 5215,
      "Ġì¶©ëıĮ": 5216,
      "ë¯¹": 5217,
      "ëĶĶìħĺ": 5218,
      "ë§Ļ": 5219,
      "ìľłì¹ĺ": 5220,
      "ë²łìĿ´": 5221,
      "ìĹŃìĤ¬": 5222,
      "ë¥ľ": 5223,
      "Ġê¸°íĥĢ": 5224,
      "ìķĦíĮĮíĬ¸": 5225,
      "íı¬ë¥´": 5226,
      "Ġëª¨ëĭĪíĦ°": 5227,
      "Ġìĭłíĺ¸": 5228,
      "ĠëħĢìĦĿ": 5229,
      "ê¸°ì§Ģ": 5230,
      "ĠëĥĦìĥĪ": 5231,
      "ë²Īíĺ¸": 5232,
      "ê·¸ëłĩ": 5233,
      "ìĤŃ": 5234,
      "ĠìĭľìĽĲ": 5235,
      "ëł¤ìķ¼": 5236,
      "66": 5237,
      "ĠíĺĦíĻ©": 5238,
      "Ġëĵ¤ìĸ´ê°Ħ": 5239,
      "Ġíģ´ëŁ½": 5240,
      "ê·¸ëŁ°": 5241,
      "Ġìŀħë²ķ": 5242,
      "ï½": 5243,
      "Ġë¬¸ìĿĺ": 5244,
      "íĮĮìĿ´": 5245,
      "ìĪľíĻĺ": 5246,
      "ĠìĽĲíķĺ": 5247,
      "ë°ķë¬¼ê´Ģ": 5248,
      "3000": 5249,
      "Ġì¤¬": 5250,
      "ìŀ¬íĮĲ": 5251,
      "Ġì¡°ìŀĳ": 5252,
      "Ġíĸīë³´": 5253,
      "ĠìĪ«": 5254,
      "Ġë³´ìĿ¸": 5255,
      "ĠëĦ¤ìĿ´ë²Ħ": 5256,
      "Ġê±°ëĳĲ": 5257,
      "Ġìŀħì¦Ŀ": 5258,
      "íĽ": 5259,
      "ì¹«": 5260,
      "íķĻê¸°": 5261,
      "Ġíľ´ê°Ģ": 5262,
      "ĠíĹĪìľĦ": 5263,
      "Ġë§ĽìŀĪ": 5264,
      "ĠëĨįíĺĳ": 5265,
      "Ġë§ŀìĿ´": 5266,
      "99": 5267,
      "Ġë©ĶìĿ´ìłĢ": 5268,
      "ëĮĢë¹Ħ": 5269,
      "êµŃëĤ´": 5270,
      "ĠëıĮìŀħ": 5271,
      "ĠìĦ¸ë¶Ģ": 5272,
      "Ġìĭľìĥģ": 5273,
      "ĠíĽ¼ìĨĲ": 5274,
      "íĨłë¡Ŀ": 5275,
      "ĠíĬ¸ëłĮëĵľ": 5276,
      "ì¨Į": 5277,
      "ĠêµĲíļĮ": 5278,
      "Ġìĭłë¶Ħ": 5279,
      "IT": 5280,
      "Ġê³µëŀµ": 5281,
      "ì¼ĢìĿ´ìħĺ": 5282,
      "ëĿ¼ìĦľ": 5283,
      "Ġìļ©ìĹŃ": 5284,
      "ë§ĪìŀĲ": 5285,
      "Ġê°Ĳìĭľ": 5286,
      "75": 5287,
      "Ġë¶Ģì±Ħ": 5288,
      "Ġê¹ĢìłķìĿĢ": 5289,
      "Ġë¹Ĺ": 5290,
      "300": 5291,
      "ê³½": 5292,
      "Ġêµ¬íķĺ": 5293,
      "Ġíķľì¸µ": 5294,
      "Ġë§¤ì£¼": 5295,
      "ĠìĪĺìĨĮ": 5296,
      "Ġ=": 5297,
      "ĠëĤĺìĦłëĭ¤": 5298,
      "ĠíĴĢìĿ´": 5299,
      "ĠìŀĩëĶ°ëĿ¼": 5300,
      "ê¸°ëħĲ": 5301,
      "Ġìľłìŀħ": 5302,
      "ĠìĹ°ëĮĢ": 5303,
      "ëľ¨ë¦¬": 5304,
      "ìĪĺìĿµ": 5305,
      "Ġë³µìĽĲ": 5306,
      "Ġì¤ĳëĮĢ": 5307,
      "Ġê°ĢëŁī": 5308,
      "Ġê°Ħë¶Ģ": 5309,
      "Ġìłĸ": 5310,
      "ĠìĹ°íľ´": 5311,
      "ĠêµĲìľ¡ê°Ĳ": 5312,
      "ĠêµŃìłķìĽĲ": 5313,
      "ĠìŀĲìĤ´": 5314,
      "ĠìĹĶì§Ħ": 5315,
      "Ġë³ĢëıĻ": 5316,
      "ëªħíļĮ": 5317,
      "Ġì°Į": 5318,
      "ĠãĦ±": 5319,
      "ì§ĪíĻĺ": 5320,
      "Ġëĭ¨ìĸ´": 5321,
      "ĠìłĲì°¨": 5322,
      "ĠíĬ¹íĻĶ": 5323,
      "ĠëĳĺëŁ¬ìĭ¼": 5324,
      "Ġë³´ê´Ģ": 5325,
      "ì²ĺë¶Ħ": 5326,
      "Ġë©Ģë¦¬": 5327,
      "íķĻê³¼": 5328,
      "ê¸°ê¸°": 5329,
      "Ġì¡°ìłĪ": 5330,
      "Ġìµľìłģ": 5331,
      "ìłķë¹Ħ": 5332,
      "Ġêµ¬ê¸Ģ": 5333,
      "Ġì¹ĺëŁ¬": 5334,
      "Ġì¢ħë¥ĺ": 5335,
      "Ġê·¸ìłĢ": 5336,
      "ìŀ¥ê¸°": 5337,
      "ĠìĬ¤íİĺìĿ¸": 5338,
      "íĬľë¸Į": 5339,
      "Ġê³¼ìŀ¥": 5340,
      "ĠëıĻëĤ¨": 5341,
      "ĠìķĪì²łìĪĺ": 5342,
      "Ġë°ĸìĹĲ": 5343,
      "Ġì·¨íķĺ": 5344,
      "ĠìķĦíĶĦ": 5345,
      "ìĿ´ëĭĿ": 5346,
      "Ġìłķì¹ĺìĿ¸": 5347,
      "Ġê¸īê²©": 5348,
      "Ġë°°ëĭ¬": 5349,
      "ëį¤": 5350,
      "ìľĪ": 5351,
      "Ġìłľìķ½": 5352,
      "ĠìĪĺì¹ĺ": 5353,
      "Ġíķ©ë¥ĺ": 5354,
      "ì²ľìĸµ": 5355,
      "Ġìĸ´ë¥¸": 5356,
      "Ġìĺ¤íĶ¼ìĬ¤": 5357,
      "åħ": 5358,
      "Ġë©´ìłģ": 5359,
      "ĠìĨĮëħĦ": 5360,
      "Ġëĺĳê°Ļ": 5361,
      "¸Ĳ": 5362,
      "Ġìĵ°ëłĪê¸°": 5363,
      "ĠìĿ¼ìĽĲ": 5364,
      "ë°Ķëĭ¥": 5365,
      "ìļĶê¸Ī": 5366,
      "Ġê¹ľì§Ŀ": 5367,
      "ĠìĿ´ë¤Ħì¡Į": 5368,
      "íĥĲ": 5369,
      "ìŀ¥ë¹Ħ": 5370,
      "Ġë²¨": 5371,
      "Ġê°ĢìĬ¤": 5372,
      "Ġêµ¬ë¯¸": 5373,
      "íķ´ì§Ī": 5374,
      "Ġì¶©ì²Ń": 5375,
      "ìŀĲë§ĪìŀĲ": 5376,
      "ĠìĤ¬ìĹħë¹Ħ": 5377,
      "Ġë¬´ëĦĪ": 5378,
      "ĠìĦłë³´ìĿ¸ëĭ¤": 5379,
      "Ġë¹Ħìłķê·ľì§ģ": 5380,
      "ĠìľłëıĻ": 5381,
      "Ġë°°ëł¤": 5382,
      "ì¹¸": 5383,
      "Ġëĭ¹ìĿ¼": 5384,
      "Ġê»": 5385,
      "Ġíķ´ìļ´": 5386,
      "ĠìĹĦì²ŃëĤľ": 5387,
      "Ġíĥĳìŀ¬": 5388,
      "ĠíĻĺê²½ë¶Ģ": 5389,
      "ì²´ìľ¡ê´Ģ": 5390,
      "Ġ46": 5391,
      "Ġì¦īìĭľ": 5392,
      "Ġì²łíķĻ": 5393,
      "ë°ĶìĿ´ìĺ¤": 5394,
      "íķ´ìł¸": 5395,
      "ĠíĨµì¦Ŀ": 5396,
      "ĠìĤ¬ë¡ľ": 5397,
      "Ġê·¸ëŀĺìļĶ": 5398,
      "ĠìĹ°íķ©": 5399,
      "ê²½ëĤ¨": 5400,
      "Ġì§ĢëıĦìŀĲ": 5401,
      "ĠëĴ¤ì§ĳ": 5402,
      "ì§Ģìĸ´": 5403,
      "ĠìĪ«ìŀĲ": 5404,
      "ëŀŃ": 5405,
      "Ġìĭłìŀħ": 5406,
      "Ġë¬¼ì§Ī": 5407,
      "ĠCEO": 5408,
      "Ġìłģë°ľ": 5409,
      "ê³µíķĻ": 5410,
      "ëª¨ëį¸": 5411,
      "Ġê²½íĸ¥": 5412,
      "ëħ¸ì´Ŀ": 5413,
      "ĠíĺĳìĹħ": 5414,
      "ìłĦëĤ¨": 5415,
      "Ġë©Ķëī´": 5416,
      "ĠìĨĮë¬¸": 5417,
      "ĠëĪĪì¹ĺ": 5418,
      "ìĿĢìĿ´": 5419,
      "ìķĦíĬ¸": 5420,
      "58": 5421,
      "ìĬ¤íĭ°ë²Į": 5422,
      "ĠìĤ¬ë¡ľìŀ¡": 5423,
      "Ġì¤ĺ": 5424,
      "ĠíļįëĵĿ": 5425,
      "Ġâĳ": 5426,
      "Ġë¹Ļ": 5427,
      "Ġë¹łì§Ħ": 5428,
      "ë²ħ": 5429,
      "Ġë©ĺ": 5430,
      "Ġ49": 5431,
      "ĠëģĮìĸ´ìĺ¬": 5432,
      "Ġëĭ¬íķľëĭ¤": 5433,
      "Ġ47": 5434,
      "ĠPC": 5435,
      "ë°¸": 5436,
      "ĠìĺĪëĬ¥": 5437,
      "Ġìĭľìłķ": 5438,
      "ëĬ¦": 5439,
      "Ġì¸¡ìłķ": 5440,
      "ìłĦì§Ģ": 5441,
      "Ġìĭ¤íĸī": 5442,
      "ĠìĬ¤íĥĢíĬ¸": 5443,
      "ìĥģê³µ": 5444,
      "Ġê°ĸì¶°": 5445,
      "ê°ľìĨĮ": 5446,
      "ëıĻë¬¼": 5447,
      "ĠëĤĺê°Ķ": 5448,
      "Ġíľ´ìĭĿ": 5449,
      "ĠíĻĶìĦ±": 5450,
      "ìĭŃìĭľìĺ¤": 5451,
      "ĠìłķìĭĿ": 5452,
      "ĠìĤ¬ëĿ¼ì§Ģ": 5453,
      "Ġíĸĩ": 5454,
      "íĺĳìĥģ": 5455,
      "Ġë¯¼ì£¼ì£¼ìĿĺ": 5456,
      "ĠíĮĮë¦¬": 5457,
      "ê±¸ìĿĮ": 5458,
      "Ġì°½ìĿĺ": 5459,
      "ì°¸ìĹ¬": 5460,
      "Ġíĸ¥íķľ": 5461,
      "Ġë¯¸ìķĪ": 5462,
      "ê³łë¦¬": 5463,
      "ìĥģíĥľ": 5464,
      "Ġë¥´": 5465,
      "ëĲĲìľ¼ë©°": 5466,
      "ì°¨ëŁī": 5467,
      "ĠìŀĦìĥģ": 5468,
      "Ġê¶Įê³ł": 5469,
      "Ġìĺ¤ë¹ł": 5470,
      "ĠìĨĮíĶĦíĬ¸": 5471,
      "íĺĦì§Ħ": 5472,
      "Ġì´Ŀê´Ħ": 5473,
      "ĠíĴįê²½": 5474,
      "ĠíĿĲë¥´": 5475,
      "ĠKIA": 5476,
      "ĠìĦ¸íĬ¸": 5477,
      "LG": 5478,
      "Ġê³łëĵ±íķĻêµĲ": 5479,
      "ĠìĸĳìĤ°": 5480,
      "ĠëĮĢìŀ¥": 5481,
      "Ġê·¸ê°Ħ": 5482,
      "Ġì»¤ë®¤ëĭĪ": 5483,
      "ĠìĭľìĤ¬": 5484,
      "Ġ[": 5485,
      "Ġê²°ìĿĺ": 5486,
      "ìķ½íĴĪ": 5487,
      "ëıĻëł¥": 5488,
      "Ġ120": 5489,
      "Ġë»Ķ": 5490,
      "Ġë¬¼ê°Ģ": 5491,
      "Ġìĸ´ë¥´ìĭł": 5492,
      "ĠãĪľ": 5493,
      "ë¸Ĳ": 5494,
      "ĠìĦ¸ìĽł": 5495,
      "ĠëĮĢíķ´ìĦł": 5496,
      "ë©į": 5497,
      "53": 5498,
      "ë¹Ħìľ¨": 5499,
      "Ġë°©ìĸ´": 5500,
      "ë§Īì¼ĵ": 5501,
      "ĠëĦĪë¬´ëĤĺ": 5502,
      "ìĭľìķĪ": 5503,
      "Ġë°ķìłķ": 5504,
      "Ġê°ģìŀĲ": 5505,
      "ĠëķĢ": 5506,
      "Ġíķ´ìļĶ": 5507,
      "Ġê±°ì¹ĺ": 5508,
      "ë°ĶëŀĮ": 5509,
      "Ġë§Īì³¤": 5510,
      "ĠëĤ¯": 5511,
      "Ġë°ĺë°ķ": 5512,
      "Ġì°¨ê´Ģ": 5513,
      "ĠëıĻêµ¬": 5514,
      "ĠìĥģìĹħ": 5515,
      "Ġìĸ´ì¨Į": 5516,
      "ìĿ´ëŀĢ": 5517,
      "ĠìłĲíı¬": 5518,
      "59": 5519,
      "íĹĪê°Ģ": 5520,
      "Ġëħ¸ë¬´íĺĦ": 5521,
      "Ġê±¸ìĿĮ": 5522,
      "ìŀĦëĮĢ": 5523,
      "Ġìŀłìŀ¬": 5524,
      "íĪ": 5525,
      "íĢ´": 5526,
      "Ġìłģíķ©": 5527,
      "ĠìĿ´ëłĩ": 5528,
      "Ġì¹ĺë¥´": 5529,
      "Ġìŀ¬ë£Į": 5530,
      "ìĹĲê²Ĳ": 5531,
      "íĮĢìŀ¥": 5532,
      "ëļĿ": 5533,
      "ĠìĻ¸íĻĺ": 5534,
      "íı¬ëŁ¼": 5535,
      "ç¾İ": 5536,
      "68": 5537,
      "ĠëģĬìŀĦ": 5538,
      "Ġì°¨ì§Ī": 5539,
      "Ġë¶ĢìĤ¬ìŀ¥": 5540,
      "ìĬ¤ë§ĪíĬ¸": 5541,
      "Ġê°¤ëŁŃìĭľ": 5542,
      "ĠìĦ±ìĿ¸": 5543,
      "Ġê³łìłķ": 5544,
      "Ġë³Ħë¡ľ": 5545,
      "ĠëıĮë¦¬": 5546,
      "Ġê¸°ìĥģ": 5547,
      "ìĹ°íŀĪ": 5548,
      "Ġì¤ĳìłĲ": 5549,
      "ìĩł": 5550,
      "Ġíķ©ëıĻ": 5551,
      "Ġìŀħìĭľ": 5552,
      "ĠìĬ¤íĨłë¦¬": 5553,
      "Ġìłľê³ł": 5554,
      "Ġì´ĪìłĲ": 5555,
      "Ġ2002": 5556,
      "ëıĦìĦľê´Ģ": 5557,
      "57": 5558,
      "ĠìĭłìĦł": 5559,
      "ĵê¸Ģ": 5560,
      "Ġì½ĶìĬ¤íĶ¼": 5561,
      "Ġì§Ħë¡ľ": 5562,
      "ê¸Ģë¡ľë²Į": 5563,
      "Ġë³Ģìĭł": 5564,
      "ĠìķĪëħķ": 5565,
      "ĠìĹĨìķł": 5566,
      "ë¥Ń": 5567,
      "ëģĿ": 5568,
      "Ġì¶ķíķĺ": 5569,
      "ìĹ¬ìŀĲ": 5570,
      "íİĺìĿ´": 5571,
      "Ġë³´ìĿ¼": 5572,
      "ĠëıĦì¿Ħ": 5573,
      "ì´ĿíļĮ": 5574,
      "ĠìĹĲìĬ¤": 5575,
      "Ġì¢ħìĿ´": 5576,
      "Ġì¸µ": 5577,
      "ĠìĨĮíĺķ": 5578,
      "ëĲ¨": 5579,
      "Ġìŀ¬ëĭ¨": 5580,
      "ĠíıŃíĸī": 5581,
      "Ġë°ĽìķĦëĵ¤ìĿ´": 5582,
      "ì±": 5583,
      "Ġìĭ¤ìłķ": 5584,
      "Ġë¹ĦìĦľ": 5585,
      "ë§Īíģ¬": 5586,
      "8000": 5587,
      "ï¼Ĥ": 5588,
      "ĠìĦľëªħ": 5589,
      "Ġìŀ¬ë¯¸ìŀĪ": 5590,
      "Ġë²ĮìĺĢ": 5591,
      "Ġê³½": 5592,
      "Ġì¢ĭìķĦ": 5593,
      "42": 5594,
      "ĠìĻľëĥĲ": 5595,
      "PC": 5596,
      "ĠëıĦìĦľê´Ģ": 5597,
      "ì²ŃìĤ¬": 5598,
      "ª¼": 5599,
      "ëŀĺëıĦ": 5600,
      "ĠìĽħ": 5601,
      "ì£¼ì£¼": 5602,
      "Ġìĭłì²´": 5603,
      "ê²½ì°°ìĦľ": 5604,
      "Ġê°ķìĹ°": 5605,
      "Ġê°ģêµŃ": 5606,
      "ĠìĤ¬ê¸°": 5607,
      "Ġê±´ëį°": 5608,
      "ĠìľĦì¶ķ": 5609,
      "ĠìŀĲê¾¸": 5610,
      "ìķĦëĿ¼": 5611,
      "ĠìĿ¼ë°©": 5612,
      "ĠìĥģìĿ¸": 5613,
      "ĠëĵľëŁ¬ëĥĪ": 5614,
      "ìĿ¸êµ¬": 5615,
      "56": 5616,
      "Ġìľµíķ©": 5617,
      "ì¡°íĬ¸": 5618,
      "Ġíķľìłķ": 5619,
      "Ġìłķíķĺ": 5620,
      "ê°ľìĿ¸": 5621,
      "ĠíĮĲìĤ¬": 5622,
      "Ġì¤Ħìĸ´ëĵł": 5623,
      "ĠëĤĺëĪĶ": 5624,
      "Ġëı¼ì§Ģ": 5625,
      "ĠìĿ¸ê³µì§ĢëĬ¥": 5626,
      "Ġ59": 5627,
      "ĠíĮĮíĬ¸ëĦĪ": 5628,
      "ĠìĹ¬íĮĮ": 5629,
      "ìĨĮìĨį": 5630,
      "Ġê°ĢìŀħìŀĲ": 5631,
      "ê³łê°Ŀ": 5632,
      "Ġì£¼ì°¨ìŀ¥": 5633,
      "Ġê³łìĨĮ": 5634,
      "Ġêµ¬ìłľ": 5635,
      "Ġë¯¸êµ°": 5636,
      "Ġìĩł": 5637,
      "ĠìĹ°ìĪĺ": 5638,
      "SK": 5639,
      "Ġì¹¨íķ´": 5640,
      "ì¤ĺìķ¼": 5641,
      "ĠíķĢ": 5642,
      "ì§Ģê²Ģ": 5643,
      "ìķĬ": 5644,
      "ìĤ¬ìĹħìŀĲ": 5645,
      "Ġìļ´ìłĦìŀĲ": 5646,
      "ĠëŁ°ëįĺ": 5647,
      "ĠìĹ°ê¸Ī": 5648,
      "ë¶ĢëĮĢ": 5649,
      "ê¼¼": 5650,
      "Ġìĥģê°Ģ": 5651,
      "ĠìĤ´ìķĦê°Ģ": 5652,
      "ĠìĻĦê³µ": 5653,
      "Ġëªħëĭ¨": 5654,
      "ê·¹ìŀ¥": 5655,
      "Ġë¯¸ìĤ¬ìĿ¼": 5656,
      "ì¹´ìĿ´": 5657,
      "ĠìĪĺë¦¬": 5658,
      "ìĨĮìŀ¬": 5659,
      "Ġìħĭ": 5660,
      "ĠíĮĲë§¤ëŁī": 5661,
      "Ġëĭ¹íķĺ": 5662,
      "ĠíĥĢìŀĲ": 5663,
      "ë¯¸ëĶĶìĸ´": 5664,
      "Ġê°Ĳê°ģ": 5665,
      "Ġì¦īê°ģ": 5666,
      "ëħ¹": 5667,
      "ĠìĹ¬ìĿ¸": 5668,
      "Ġíĥľìĸĳê´ĳ": 5669,
      "ìĹĳìĬ¤": 5670,
      "ìĸ´ë¦°": 5671,
      "ê·ľìłľ": 5672,
      "4000": 5673,
      "ê°ĢìļĶ": 5674,
      "43": 5675,
      "Ġìĸ´ëĳ": 5676,
      "ìĦ¸ìłĲ": 5677,
      "ìĨĮìĨ¡": 5678,
      "ĠìĭłìĦ¸ê³Ħ": 5679,
      "Ġëĭ¨ê¸°": 5680,
      "Ġê²¹": 5681,
      "ê´Ģëł¨": 5682,
      "Ġìļ´ëªħ": 5683,
      "Ġì²ŃìĨĮ": 5684,
      "ê³łëĵ±": 5685,
      "ëĭ´ëĭ¹": 5686,
      "ì§Ģì£¼": 5687,
      "Ġì¦Ŀê¶ĮìĤ¬": 5688,
      "6000": 5689,
      "ĠìĿ´ìŀĲ": 5690,
      "ĠíĮĢìŀ¥": 5691,
      "Ġíİľ": 5692,
      "ĠëıĻíķ´": 5693,
      "ìŀĳê°Ģ": 5694,
      "ìķĪë³´": 5695,
      "41": 5696,
      "ìļ´ìłĦ": 5697,
      "Ġê¸°íĽĦ": 5698,
      "Ġì¤ĳíķĻêµĲ": 5699,
      "ĠíĦ±": 5700,
      "Ġëª°ìķĦ": 5701,
      "Ġë²Ķíĸī": 5702,
      "Ġëĳĺì§¸": 5703,
      "ĠëĤ´ëĭ¬": 5704,
      "ì¤ĳìĭ¬": 5705,
      "Ġì¶ľìĤ°": 5706,
      "Ġì£¼ì²´": 5707,
      "ë¡ľìį¨": 5708,
      "ĠìĥĮ": 5709,
      "Ġíľ´ëĮĢíı°": 5710,
      "Ġê³¼ëıĦ": 5711,
      "ĠìĦ¤ë¬¸": 5712,
      "íĤ¤ì§Ģ": 5713,
      "ĠëĬĲëĤĢ": 5714,
      "ìłĦíķĺ": 5715,
      "Ġìľłíĺķ": 5716,
      "Ġê±´ì¡°": 5717,
      "ĠëĮĢë²ķìĽĲ": 5718,
      "ĠìĦ±íĸ¥": 5719,
      "Ġë°Ģëł¤": 5720,
      "Ġë¯¸ëĭĪ": 5721,
      "ĠìķŀìĦ¸": 5722,
      "Ġë§¤ì²´": 5723,
      "Ġì²łìłĢíŀĪ": 5724,
      "ĠíĪ¬ìŁģ": 5725,
      "ä¸Ń": 5726,
      "Ġì§Ģì§Ħ": 5727,
      "ëĶĺ": 5728,
      "Ġê°Ģìĭľ": 5729,
      "Ġê³µì§ģ": 5730,
      "ĠìĿ¸ìĹ°": 5731,
      "ĠëıħìĦľ": 5732,
      "Ġìŀħì°°": 5733,
      "ëĬĲëĿ¼": 5734,
      "77": 5735,
      "Ġíķ´ìłľ": 5736,
      "Ġíı¬ìŀ¥": 5737,
      "ĠìĥĿê²¨": 5738,
      "ac": 5739,
      "ĠìĨĮìĻ¸": 5740,
      "Ġê±¸ëł¤": 5741,
      "Ľë¶Ī": 5742,
      "ĠFTA": 5743,
      "ì²ŃìĨĮëħĦ": 5744,
      "Ġëħ¸íķĺìļ°": 5745,
      "ĠíĨłë¡łíļĮ": 5746,
      "Ġë§ĪìĿ´": 5747,
      "Ġë±": 5748,
      "Ġì§ĢëĭĮ": 5749,
      "Ġìľłë°ľ": 5750,
      "ìľłìĤ°": 5751,
      "ĠëĮĢëª©": 5752,
      "Ġê·¸ì¹ĺ": 5753,
      "Ġíģ´ëĿ¼": 5754,
      "¼íĦ°": 5755,
      "Ġë§ŀìĦľ": 5756,
      "ìľłëŁ½": 5757,
      "ĠìĹĲìĸ´": 5758,
      "Ġ42": 5759,
      "ì½ĶìĬ¤": 5760,
      "Ġì§Ģëªħ": 5761,
      "ìĤ¬ë¬´ìĨĮ": 5762,
      "ìľ¼ë¯Ģë¡ľ": 5763,
      "êµĲíļĮ": 5764,
      "Ġì²ľìĹ°": 5765,
      "ĠìłĦíĮĮ": 5766,
      "ĠëĮĢê°Ģ": 5767,
      "ĠìĦłì§ĦêµŃ": 5768,
      "ĠíıīíĥĿ": 5769,
      "ĠíĥĦíķµ": 5770,
      "Ġìĵ°ëŁ¬": 5771,
      "ĠìłĦëĭ´": 5772,
      "ĠíĮ½": 5773,
      "Ġê³µíĨµ": 5774,
      "Ġìĸ´ëĸł": 5775,
      "ì¤Ģë¹Ħ": 5776,
      "ĠëıħíĬ¹": 5777,
      "Ġì¶ľìĦĿ": 5778,
      "ĠìłĢì¶ķ": 5779,
      "Ġë¶ģë¯¸": 5780,
      "Ġë²¤ì²ĺ": 5781,
      "Ġìĥģëĭ¹ìĪĺ": 5782,
      "Ġìłľì¡°ìĹħ": 5783,
      "ĠëĨĴìĹ¬": 5784,
      "Ġëĭ¨ìĪľíŀĪ": 5785,
      "ìĿ¸ê¶Į": 5786,
      "Ġë³ĢìĪĺ": 5787,
      "Ġë¸Įë¦¬íķĳ": 5788,
      "Ġìľłíĸī": 5789,
      "Ġíķłì§Ģ": 5790,
      "ĠìłĦìĭľíļĮ": 5791,
      "ê°Ģíı¬ë¥´": 5792,
      "ìĹĲìĦľë¶ĢíĦ°": 5793,
      "Ġìŀłê¹Ĳ": 5794,
      "Ġë·": 5795,
      "Ġê¸°ìĪłëł¥": 5796,
      "Ġíľ©": 5797,
      "Ġë©Īì¶Ķ": 5798,
      "ĠìĬ¤íĶ¼": 5799,
      "Ġëĭ¹íĸĪ": 5800,
      "ĠQ": 5801,
      "ê³łìļ©": 5802,
      "Ġëĭ¿": 5803,
      "Ġìĭłì¤ĳ": 5804,
      "ĠëĤ´ìĪĺ": 5805,
      "ĠìĨĶì§ģ": 5806,
      "Ġë°°ëĭ¹": 5807,
      "ìĿ¸íĦ°ëĦ·": 5808,
      "Ġê°ĪìĪĺë¡Ŀ": 5809,
      "ê³µë¬´ìĽĲ": 5810,
      "Ġì¦Ĳê±°": 5811,
      "Ġìŀ¥ì¹ĺ": 5812,
      "ëĬĶëĭ¤ê³ł": 5813,
      "ĠìķĪìĭ¬": 5814,
      "Ġ75": 5815,
      "ìĿ´ì¦Ī": 5816,
      "ĠìľłíĬľë¸Į": 5817,
      "ìłĢì¶ķ": 5818,
      "Ġë¼Ī": 5819,
      "ĠëĤ´ê²Į": 5820,
      "å®": 5821,
      "Ġ2003": 5822,
      "Ġìĺ¤ìĹ¼": 5823,
      "ìĺ¨ëĭ¤": 5824,
      "ë°°ìļ°": 5825,
      "Ġìľłê¶ĮìŀĲ": 5826,
      "Ġë©Ķë¥´": 5827,
      "Ġì²´íı¬": 5828,
      "ĠìĪĺì§ĳ": 5829,
      "Ġë©°ì¹ł": 5830,
      "ĠìĪĺë°±": 5831,
      "ĠY": 5832,
      "Ġê¹ĢíĺĦ": 5833,
      "Ġëĸłìĺ¤ë¥´": 5834,
      "ëĵľëĿ¼ë§Ī": 5835,
      "ëĤ¸ëĭ¤": 5836,
      "Ġë²Ħëł¸": 5837,
      "ìĹĲëıĦ": 5838,
      "ë³į": 5839,
      "Ġëĵ¤ìĸ´ìĻĶ": 5840,
      "Ġê³µìĭľ": 5841,
      "Ġì²łê°ķ": 5842,
      "ê³¼ìłľ": 5843,
      "Ġê³łë§Ļ": 5844,
      "Ġê²©ì°¨": 5845,
      "ĠëĿ¼ëĶĶìĺ¤": 5846,
      "Ġíĺ¸ìĿĳ": 5847,
      "Ġíķ©ë³ĳ": 5848,
      "ê·¼ë¡ľ": 5849,
      "ĠìĿĺë¢°": 5850,
      "ìŀĲë³¸": 5851,
      "Ġê·¼ì²ĺ": 5852,
      "ĠìĹ°ë´ī": 5853,
      "ìĦ¸íı¬": 5854,
      "Ġë¹Ħë¡Ģ": 5855,
      "Ġìĸ´ìļ°": 5856,
      "FA": 5857,
      "ê³łìĿ¸": 5858,
      "ëŀ«ëıĻìķĪ": 5859,
      "ĠìķĦê¸°": 5860,
      "Ġëĭ¤ìĿ´": 5861,
      "es": 5862,
      "Ġê°ķìĤ¬": 5863,
      "Ġë¬¸íĻĶìŀ¬": 5864,
      "67": 5865,
      "Ġì°©ê³µ": 5866,
      "88": 5867,
      "Ġê²¨ëĥ¥": 5868,
      "Ġë¶ķ": 5869,
      "ĠìŀħìĽĲ": 5870,
      "ë¿": 5871,
      "ĠíħĮìĿ´": 5872,
      "Ġ600": 5873,
      "ëĭ¤ëŀĢ": 5874,
      "ëįĶëĿ¼ê³łìļĶ": 5875,
      "Ġíķľë²Ī": 5876,
      "ĠìĺģëĤ¨": 5877,
      "Ġìĭ¤ìŀ¥": 5878,
      "Ġì°¨ê¸°": 5879,
      "Ġê°ĲìĦ±": 5880,
      "Ġë¶Īê±°": 5881,
      "ĠëĤ¨ê¸°": 5882,
      "Ġíĩ´ì§ģ": 5883,
      "ĠìŀĲëĦ¤": 5884,
      "Ġëĭ´ê²¨": 5885,
      "ĠìĻĢìĿ¸": 5886,
      "Ġë°©íķ´": 5887,
      "Ġìĭ¬ì§Ģìĸ´": 5888,
      "Ġìĸ´ì©Ķ": 5889,
      "ĠíķłìķĦë²Ħì§Ģ": 5890,
      "ĠíĽĦë°°": 5891,
      "ìłĪì°¨": 5892,
      "ĠìĿ¼ìĭľ": 5893,
      "Ġëļľëł·": 5894,
      "ìĭłì²Ń": 5895,
      "ĠíļĮê³Ħ": 5896,
      "Ġê½¤": 5897,
      "ĠìºĲëĤĺëĭ¤": 5898,
      "ĠíĮĮìĿ´": 5899,
      "ĠìĨĲëĭĺ": 5900,
      "ìŀ¬ìłķë¶Ģ": 5901,
      "ĠìķĦíĶĦë¦¬ì¹´": 5902,
      "Ġì§Ħìĥģ": 5903,
      "Ġìĸ¸ëĭĪ": 5904,
      "ĠëĦĺì¹ĺ": 5905,
      "Ġê¸°ì¡°": 5906,
      "Ġìļ©ê¸°": 5907,
      "ìĭľë¦¬ì¦Ī": 5908,
      "ëĵĢ": 5909,
      "ĠìĿ¼ì°į": 5910,
      "Ġê°Ģê²Į": 5911,
      "Ġìĭľëĭ¬": 5912,
      "ë¯¸ëĦĲ": 5913,
      "Ġì½©": 5914,
      "Ġê¹ĢëıĻ": 5915,
      "Ġëĵ¤ìĿ´": 5916,
      "ol": 5917,
      "Ġê·¹ëĮĢ": 5918,
      "Ġì¡°ëĭ¬": 5919,
      "Ġ44": 5920,
      "Ġëįĺì§Ģ": 5921,
      "ì§ĢëĤľíķ´": 5922,
      "ëĨįìĹħ": 5923,
      "ë³¸ëĭ¤": 5924,
      "ĠëĲľëĭ¤ê³ł": 5925,
      "ìĭ¤ìłĲ": 5926,
      "ĠìłĦê¸°ì°¨": 5927,
      "Ġê°Ģë³į": 5928,
      "íķµíĻĶ": 5929,
      "Ġëĭ¬íĸĪ": 5930,
      "Ġê´ĳìŀ¥": 5931,
      "ĠìĿ¼ìľ¼íĤ¤": 5932,
      "ìľłíĨµ": 5933,
      "1000": 5934,
      "ĠìĿ´ë¤Ħì§Ħ": 5935,
      "ĠíĥĦëł¥": 5936,
      "ëĲľëĭ¤ëĬĶ": 5937,
      "Ġëħ¼ë¬¸": 5938,
      "ë¡¯ëį°": 5939,
      "ìĿ´ëŁ°": 5940,
      "is": 5941,
      "ĠìĨĶë£¨ìħĺ": 5942,
      "ĠëıĦë¯¼": 5943,
      "Ġê±¸ìĸ´": 5944,
      "ì¹ľêµ¬": 5945,
      "Ġê²¨ìļ°": 5946,
      "íķĻíļĮ": 5947,
      "íĺĳìłķ": 5948,
      "ĠëĤ©íĴĪ": 5949,
      "Ġë²Įê¸Ī": 5950,
      "¤ĺ": 5951,
      "ĠëĮĵê¸Ģ": 5952,
      "Ġìķ¤": 5953,
      "Ġìĸ´ëł¤ìļ¸": 5954,
      "ĠìĨĮìļĶ": 5955,
      "ĠëĮĢë²ķ": 5956,
      "ê³µê¸ī": 5957,
      "Ġì£¼íĸī": 5958,
      "ê°ĲìĹ¼": 5959,
      "ĠìĭłìŀĦ": 5960,
      "Ġì¤ĳëıĦ": 5961,
      "ëłĪìĿ¸": 5962,
      "Ġìĭ¬íĻĶ": 5963,
      "ìĬ¤íĤ¤": 5964,
      "Ġê²Įìĭľ": 5965,
      "Ġì§Ģì¶ľ": 5966,
      "com": 5967,
      "AI": 5968,
      "ì¼Ģìĸ´": 5969,
      "Ġìŀ¬ë°°": 5970,
      "ëĭŃ": 5971,
      "ĠíĮĮê´´": 5972,
      "54": 5973,
      "ìĸ´ëĸ": 5974,
      "ë£°": 5975,
      "ĠìĭłìĿ¸": 5976,
      "ĠìŀħêµŃ": 5977,
      "Ġ43": 5978,
      "ë³´ìĪĺ": 5979,
      "ìĤ¬ìĿ´íĬ¸": 5980,
      "ĠêµŃë¹Ħ": 5981,
      "Ġì¶Ķê²½": 5982,
      "ĠìķĦìĽĥ": 5983,
      "69": 5984,
      "7000": 5985,
      "am": 5986,
      "ë§ĪìĬ¤": 5987,
      "ì§Ħëĭ¨": 5988,
      "êµĲíĨµë¶Ģ": 5989,
      "ĠìĿĺì¡´": 5990,
      "ĠêµĲê³¼ìĦľ": 5991,
      "Ġê³łê¸°": 5992,
      "ì£¼ìĿ¸": 5993,
      "Ġê°ģìĺ¤": 5994,
      "Ġíķľë§ĪëĶĶ": 5995,
      "Ġíķ¸": 5996,
      "ëĤĺê°Ī": 5997,
      "52": 5998,
      "Ġê²½ë¹Ħ": 5999,
      "ë°Ķì§Ģ": 6000,
      "Ġê±´ìĿĺ": 6001,
      "ë§¹ìłĲ": 6002,
      "ĠíĿ°": 6003,
      "Ġíİ¸ì§ĳ": 6004,
      "Ġë¬´ìĦľ": 6005,
      "Ġëª°ëĿ¼": 6006,
      "ë²¤ì²ĺ": 6007,
      "ëľ©": 6008,
      "Ġìľłì¹ĺìĽĲ": 6009,
      "íĻķìĭ¤": 6010,
      "Ġì§ĦíĻĶ": 6011,
      "Ġìľłê°Ģ": 6012,
      "ĠìĤ°ë¦¼": 6013,
      "ĠëĦĺê²¨": 6014,
      "ĠìĿ¼ì¢ħ": 6015,
      "Ġìĭľì¤ĳ": 6016,
      "Ġìª¼": 6017,
      "ĠìĹŃìłĦ": 6018,
      "ìĦłìĸ¸": 6019,
      "Ġì¦Ŀëªħ": 6020,
      "Ġë°Ķë¥´": 6021,
      "ìŀĲìĹ°": 6022,
      "64": 6023,
      "Ġê²°ìĭ¬": 6024,
      "ĠìķķëıĦ": 6025,
      "ë¯¸ëĤĺ": 6026,
      "Ġìĺ¤ëŀ«ëıĻìķĪ": 6027,
      "Ġìĭ¬íĮĲ": 6028,
      "ĠìŀĲë¬¸": 6029,
      "Ġì»¨ìĦ¤íĮħ": 6030,
      "ĠëĬĺìĸ´ëĤ¬": 6031,
      "ìĥģëĭ´": 6032,
      "ì¤ĳìĨĮ": 6033,
      "Ġì°½ìŀĳ": 6034,
      "Ġì¶ľê·¼": 6035,
      "ĠëĤ´ëĨ¨": 6036,
      "ĠëĮĢìĥģìŀĲ": 6037,
      "Ġ52": 6038,
      "Ġë§¥ì£¼": 6039,
      "æĸ": 6040,
      "Ġëĭ¤ë£¨": 6041,
      "Ġì²łíļĮ": 6042,
      "ĠìĦłìłľ": 6043,
      "ĠëķĲ": 6044,
      "Ġë°ľê¸ī": 6045,
      "Ġë¶Ģìŀĳìļ©": 6046,
      "Ġì§ĢëĤĺì¹ĺ": 6047,
      "Ġê´ĢëŀĮê°Ŀ": 6048,
      "Ġëı¼ìļĶ": 6049,
      "ĠíķŃëª©": 6050,
      "ĠìĬ¤ìľĦ": 6051,
      "ĠíĸĪìĹĪ": 6052,
      "Ġê°ĲìĹ¼ì¦Ŀ": 6053,
      "ĠìĿµìĪĻ": 6054,
      "ĠìĺĽëĤł": 6055,
      "ê°ĲìĽĲ": 6056,
      "ed": 6057,
      "Ġë¹łì¡Į": 6058,
      "ĠìĪĺíĹĺ": 6059,
      "ĠëŃī": 6060,
      "ĠìĹ¬ìĿĺëıĦ": 6061,
      "ĠëĨįìĤ°ë¬¼": 6062,
      "el": 6063,
      "Ġìłķê·ľì§ģ": 6064,
      "ìĭłê³ł": 6065,
      "Ġê°ľíĹĮ": 6066,
      "ë¶ĢíĴĪ": 6067,
      "ĠìĨĲê°ĢëĿ½": 6068,
      "ê¶Ĳ": 6069,
      "ĠìĿ´ë¥¸ëĭ¤": 6070,
      "ĠìłĢìĨĮëĵĿ": 6071,
      "Ġê³¨ëª©": 6072,
      "Ġì¤ĳëıĻ": 6073,
      "ĠìĿ´ìĦ±": 6074,
      "ìĬ¤íħĮ": 6075,
      "Ġë²¼": 6076,
      "ê³µíĹĮ": 6077,
      "Ġì½Ķë¦¬ìķĦ": 6078,
      "Ġì§ĦíķĻ": 6079,
      "ë¤Ħ": 6080,
      "Ġìµľëĭ¤": 6081,
      "Ġë¿Į": 6082,
      "ĠíĥľíĴį": 6083,
      "ĠëĤĺìģľ": 6084,
      "Ġì°¸ìĤ¬": 6085,
      "Ġì½Ķì¹ĺ": 6086,
      "ĠìĿ´ì¤ĳ": 6087,
      "ĠìĬ¤íĥĢíĬ¸ìĹħ": 6088,
      "ĳ¥": 6089,
      "ĠëĤ¨ê²¨": 6090,
      "ĠíĬ¹ê²Ģ": 6091,
      "Ġìŀ¥ë¥´": 6092,
      "Ġì¶©ìłĦ": 6093,
      "Ġë¶Ģê°ģ": 6094,
      "ĠíĽĮë¥Ń": 6095,
      "Ġê²½ìĥģ": 6096,
      "Ġë§ĪìĿ´íģ¬": 6097,
      "Ġë§¤ìĪĺ": 6098,
      "ĠìĽĲìłķ": 6099,
      "Ġìĸ¸ìłľëĤĺ": 6100,
      "ìºłíĶĦ": 6101,
      "ìģ¨": 6102,
      "Ġê±°ëĴĢ": 6103,
      "ĠìĻ¼ìª½": 6104,
      "Ġê¼´": 6105,
      "ĠëªħìłĪ": 6106,
      "ìĭľìĬ¤": 6107,
      "ĠìłĦìłľ": 6108,
      "Ġì³Ĳëĭ¤ë³´": 6109,
      "Ġê°Ģìĥģ": 6110,
      "Ġê¸Īíĺ¸": 6111,
      "íĶ¼ìķĦ": 6112,
      "ëĶª": 6113,
      "Ġê´ĢìĦ¸": 6114,
      "ìĿĺìĤ¬": 6115,
      "Ġê±°ì§ĵë§Ĳ": 6116,
      "Ġê·¸ë¦¬ìĬ¤": 6117,
      "ĠëĬĺìĸ´ëĤł": 6118,
      "ĠìŀĲëĿ¼": 6119,
      "Ġë¯¸ì¹ł": 6120,
      "ìĪį": 6121,
      "íĸĪìĹĪ": 6122,
      "ì²ľíŀĪ": 6123,
      "Ġê°Ĳì¶ķ": 6124,
      "ĠëıĮìķĦìĻĶ": 6125,
      "íķĻìŀĲ": 6126,
      "ĠëıĻìĸĳ": 6127,
      "ĠìĬ¹ì§Ħ": 6128,
      "ìŀĲë©´": 6129,
      "Ġë³´ì¡´": 6130,
      "ĠìĤ´ëł¤": 6131,
      "NG": 6132,
      "OC": 6133,
      "Ġíķľì°¸": 6134,
      "PGA": 6135,
      "ĠìķĦë¬´ê²ĥ": 6136,
      "Ġìľłíķ´": 6137,
      "ìĦ¤ê³Ħ": 6138,
      "íĨµìĥģ": 6139,
      "Ġê¹Ģì§Ħ": 6140,
      "ë°Ķëĭ¤": 6141,
      "Ġì§Ħì£¼": 6142,
      "ìĹ°íķ©íļĮ": 6143,
      "Ġì§Ģíĳľ": 6144,
      "ê¹ĥ": 6145,
      "9000": 6146,
      "Ġê¼½íŀĮëĭ¤": 6147,
      "ĠìĬ¤ëĭĺ": 6148,
      "ìļ©ì°¨": 6149,
      "Ġì§ĳê¶Į": 6150,
      "Ġê´ĢìłĲ": 6151,
      "Ġë°©ìĤ¬": 6152,
      "Ġëį©": 6153,
      "ë¶Ħê°Ħ": 6154,
      "62": 6155,
      "ìķĦì§Ģ": 6156,
      "íĹ¬": 6157,
      "Ġìĭ¤ì¢ħ": 6158,
      "51": 6159,
      "êµ¬ìĨį": 6160,
      "Ġì°¨ìĦ¸ëĮĢ": 6161,
      "ĠìĤ¬ë¬´ì´Ŀìŀ¥": 6162,
      "Ġì²łê±°": 6163,
      "ìļ¸ìĤ°": 6164,
      "Ġëª¨ìĿĢ": 6165,
      "ĠëĲĺëıĮ": 6166,
      "ëĭīìĬ¤": 6167,
      "ĠêµŃë¬´ì´Ŀë¦¬": 6168,
      "Ġì£¼ìŀ¬": 6169,
      "Ġíİ¼ì³¤": 6170,
      "ĠëĤ®ì¶Ķ": 6171,
      "ĠìĨĮê°Ĳ": 6172,
      "Ġ84": 6173,
      "Ġë¦¬ëįĶìĭŃ": 6174,
      "Ġìļ°ë¦¬ëĤĺëĿ¼": 6175,
      "Ġë¶Ļìŀ¡": 6176,
      "DP": 6177,
      "ìłĦëł¥": 6178,
      "Ġìĸ´ì¨Įëĵł": 6179,
      "Ġíķĺê³ł": 6180,
      "Ġë²łìĿ´ì§ķ": 6181,
      "Ġì¡°ê°ģ": 6182,
      "ĠìĹ¬ê¶Į": 6183,
      "ĠíĻĶë¬¼": 6184,
      "ãĥ": 6185,
      "ëłĽ": 6186,
      "Ġë¬´ìĤ°": 6187,
      "Ġë¶ĦìŁģ": 6188,
      "íĿĶ": 6189,
      "63": 6190,
      "ë¹ĦìłĦ": 6191,
      "ĠìĿĳê¸ī": 6192,
      "ro": 6193,
      "ĠíĻĺìĺģ": 6194,
      "ëĭĪê¹ĮìļĶ": 6195,
      "ĠâĢ¦": 6196,
      "ëĨĢ": 6197,
      "ĠìĿ¼íĻĺ": 6198,
      "2019": 6199,
      "ĠìĪĺê¸ī": 6200,
      "ìŀ¬ìĤ°": 6201,
      "ĠìĹ°ê´Ģ": 6202,
      "ĠìĿ´ê±¸": 6203,
      "ĠìłĢìŀ¥": 6204,
      "ìĸ´ìł¸": 6205,
      "61": 6206,
      "Ġê·¼ìľ¡": 6207,
      "ìŀ¬ìĥĿ": 6208,
      "Ġìłķìŀĳ": 6209,
      "ĠìľĦë¡ľ": 6210,
      "ìĤ¬ëĭ¨": 6211,
      "Ġê¹ĢëĮĢ": 6212,
      "ĠìĤ¬ìĹ°": 6213,
      "ëĵ¤ìĿ´": 6214,
      "Ġì¶©ì¡±": 6215,
      "Ġê¸°ê¸°": 6216,
      "ĠìĿ´ì¢ħ": 6217,
      "ĠìĽĮëĤĻ": 6218,
      "ĠíĮ¨ë°°": 6219,
      "Ġê¹Ģê²½": 6220,
      "ëĦ¤ìĭľìķĦ": 6221,
      "Ġì¹ĺë§¤": 6222,
      "Ġ41": 6223,
      "ìĬ¤íĦ´": 6224,
      "ĠìłķìĦ±": 6225,
      "ĠêµŃìĤ°": 6226,
      "ĠìĪľìĪĺ": 6227,
      "íĤ·": 6228,
      "Ġì²ľì²ľíŀĪ": 6229,
      "ĠìķĪíĥĢê¹Į": 6230,
      "ĠìłĲìĭ¬": 6231,
      "ê´ĳìŀ¥": 6232,
      "ëŃĩ": 6233,
      "Ġê¹Ģìŀ¬": 6234,
      "Ġìµľìĭł": 6235,
      "Ġê³Ħì¢Į": 6236,
      "ë±ħíģ¬": 6237,
      "Ġëª©ìĤ¬": 6238,
      "Ġì¢Įìļ°": 6239,
      "ë¥´íĬ¸": 6240,
      "ĠëĭŃ": 6241,
      "Ġê¹Ģì¹ĺ": 6242,
      "Ġê²©ëł¤": 6243,
      "Ġë°ĶëŀĮì§ģ": 6244,
      "ĠìĽĲíĻľ": 6245,
      "ĠìľĦìĥģ": 6246,
      "ĠìĿ´ëŀĢ": 6247,
      "Ġì¶Ķëª¨": 6248,
      "ìłķì§Ģ": 6249,
      "ĠíĽĦìĨį": 6250,
      "Ġìĭ¤ìĹħ": 6251,
      "ëĨįíĺĳ": 6252,
      "Ġë¹Įëł¤": 6253,
      "ĠìĿĢíĩ´": 6254,
      "ì£¼íĸī": 6255,
      "ĠìŀĲìłľ": 6256,
      "ë¶Ģì²ĺ": 6257,
      "íĻľìļ©": 6258,
      "ĠíķľìĪ¨": 6259,
      "ìłĢìĶ¨": 6260,
      "Ġíĳ": 6261,
      "Ġê¹Ģíı¬": 6262,
      "ëŀ©": 6263,
      "Ġê³¼ëª©": 6264,
      "Ġê±¸ëł¸": 6265,
      "Ġíģ´ëŀĺìĭĿ": 6266,
      "ê°Ģìłķ": 6267,
      "ë¯¸íĦ°": 6268,
      "Ġìŀħêµ¬": 6269,
      "ê²°ìłķ": 6270,
      "ĠìķĦë²ł": 6271,
      "Ġê¸°ë¦Ħ": 6272,
      "ìłĲê²Ģ": 6273,
      "Ġëĭ®": 6274,
      "ĠëĲĺê²Į": 6275,
      "Ġë¹ĦíķµíĻĶ": 6276,
      "ë¨¸ìĬ¤": 6277,
      "Ġëĭ¨ìŀ¥": 6278,
      "ĠìłĦë¬´": 6279,
      "Ġìĭ±ê°Ģíı¬ë¥´": 6280,
      "Ġë¶ĢëĶª": 6281,
      "ë°Ķë¥¸": 6282,
      "il": 6283,
      "ĠíĿĶìłģ": 6284,
      "ĠëĤ¨ë¶Ģ": 6285,
      "ĠìŀħìĪł": 6286,
      "ĠìľĦìĽĲíļĮ": 6287,
      "ĠìŀĳìłĦ": 6288,
      "ê°¤": 6289,
      "Ġë°©ì¹ĺ": 6290,
      "Ġëĭ¹ëĤ´": 6291,
      "ìłĦêµŃ": 6292,
      "ìĪĺìļĶ": 6293,
      "ë§Įê°Ħ": 6294,
      "ê·¸ëŁ¼": 6295,
      "ĠìĪĻë°ķ": 6296,
      "Ġê°Ģê³µ": 6297,
      "Ġìĺģíĸ¥ëł¥": 6298,
      "íĿ¥ìĽĲ": 6299,
      "íĨµíĻĶ": 6300,
      "ĠìķĪìĸĳ": 6301,
      "ìĸ¸ìĬ¤": 6302,
      "Ġëĵ¯ìĿ´": 6303,
      "ĠìĿ´ë§ĪíĬ¸": 6304,
      "Ġê¹Ģìĥģ": 6305,
      "ĠìĿ¸ì²ľìĭľ": 6306,
      "Ġì¡°íĻĶ": 6307,
      "ìĺĪë°©": 6308,
      "Ńī": 6309,
      "ëĸ¡": 6310,
      "Ġê°ķíĸī": 6311,
      "ìĭ±íĦ´": 6312,
      "Ġìŀ¥ëĤľ": 6313,
      "ĠìµľìĨĮíķľ": 6314,
      "ì²ŃëħĦ": 6315,
      "íıīìĸĳ": 6316,
      "Ġì§ļ": 6317,
      "íİĺëĿ¼": 6318,
      "ë¶ĦìĦĿ": 6319,
      "Ġìłķì§Ģ": 6320,
      "ëħĶ": 6321,
      "Ġê³¼ê°Ĳ": 6322,
      "ìĬ¤íĥĦ": 6323,
      "ĠíĬ¹ìľł": 6324,
      "Ġëį°ë¦¬": 6325,
      "ĠìłķíĻķíŀĪ": 6326,
      "ê²ĮìļĶ": 6327,
      "ĠìŀĲíļĮìĤ¬": 6328,
      "íĻĶë¬¸": 6329,
      "ê´ĳìĹŃ": 6330,
      "ëļ±": 6331,
      "ĠìĻ¸ë©´": 6332,
      "ì£¼ê°Ħ": 6333,
      "ë¹ħ": 6334,
      "Ġëį°ëł¤": 6335,
      "ĠìĿ´íĺ¼": 6336,
      "ĠêµĲíĻĺ": 6337,
      "ë³´ìŀ¥": 6338,
      "Ġë§ĳ": 6339,
      "Ġë°ķìĪĺ": 6340,
      "Ġe": 6341,
      "ê·łíĺķ": 6342,
      "ëĭ«": 6343,
      "Ġê³µìłķìľĦ": 6344,
      "Ġë©ľ": 6345,
      "ãĥ»": 6346,
      "Ġê°ķìłĲ": 6347,
      "Ġìķĵ": 6348,
      "ĠìķĦëģ¼": 6349,
      "ë°ķìĬ¤": 6350,
      "ĠìķĻ": 6351,
      "Ġëª«": 6352,
      "ĠíĮ¨íĤ¤ì§Ģ": 6353,
      "Ġêµ°ìĪĺ": 6354,
      "Ġëĭ¨ì¶ķ": 6355,
      "ìĪĺìĪł": 6356,
      ">(": 6357,
      "Ġë¯¼ìĥĿ": 6358,
      "íĮ¡": 6359,
      "IP": 6360,
      "ĠìĤ¬ë§ĿìŀĲ": 6361,
      "ëĭ¤ìĪĺ": 6362,
      "Ġê°ĢìĨį": 6363,
      "ĠìĤ¬ìĹħìŀ¥": 6364,
      "Ġìŀī": 6365,
      "ë±": 6366,
      "Ġìĺ¤ê°Ģ": 6367,
      "Ġê°ķë¦ī": 6368,
      "ê¸°ë°ĺ": 6369,
      "ê³µê³µ": 6370,
      "Ġì²´íģ¬": 6371,
      "ìłľì£¼": 6372,
      "ĠíħĮëŁ¬": 6373,
      "ëį©ìĿ´": 6374,
      "Ġìĸ´ìļ¸ë¦¬": 6375,
      "ĠëĤ´ìłķ": 6376,
      "ĠëĪĪë¹Ľ": 6377,
      "Ġìĭ¤íĥľ": 6378,
      "ĠíĨµíķĺ": 6379,
      "ëĬĶëĭ¤ë©´": 6380,
      "ìĸ¸ë¡ł": 6381,
      "Ġì²´ëł¥": 6382,
      "Ġìĸĳìĥģ": 6383,
      "ëıĻê°ķ": 6384,
      "ë°ķê·¼íĺľ": 6385,
      "Ġëħ¸ë¦¬": 6386,
      "ìĿ´ìļ©": 6387,
      "ĠìĹĩ": 6388,
      "ĠìĬ¹ê°Ŀ": 6389,
      "íģ°": 6390,
      "Ġê°Ģë§Į": 6391,
      "Ġëĭ¹ìĦłìĿ¸": 6392,
      "Ġìĸ´ë¦°ìĿ´ì§ĳ": 6393,
      "Ġë¬´ì¡°ê±´": 6394,
      "Ġìĺ¨ëıĦ": 6395,
      "Ġìĺ¤íķ´": 6396,
      "ĠìĦłë³´ìĿ¸": 6397,
      "ìķĦì§ģ": 6398,
      "ê¸°ë³¸": 6399,
      "Ġì´Ľë¶Ī": 6400,
      "ĠìľłíķĻ": 6401,
      "Ġë¹¼ìķĹ": 6402,
      "ë²¨íĬ¸": 6403,
      "Ġëĭ¦": 6404,
      "ë¡ľê·¸": 6405,
      "ì´Īëĵ±": 6406,
      "ìĻ¸êµŃ": 6407,
      "Ġì§Ħìĭ¬": 6408,
      "Ġì´īì§Ħ": 6409,
      "MW": 6410,
      "Ġìĭ¸ìļ°": 6411,
      "ĠëĪĪìķŀ": 6412,
      "ìĬ¤ëŁ°": 6413,
      "Ġê¼½íŀĪ": 6414,
      "ê²½ì°°ì²Ń": 6415,
      "ëĮĢë¬¸": 6416,
      "ĠìĤ¬ëĵľ": 6417,
      "TX": 6418,
      "Ġìŀ¬ê±´ì¶ķ": 6419,
      "ëªĩ": 6420,
      "ìĿ´ìŀĲ": 6421,
      "ë¶ķ": 6422,
      "Ġì¦Ŀìłķ": 6423,
      "Ġê¼¼ê¼¼": 6424,
      "ĠìĿ¸ì§Ģ": 6425,
      "ë¶Ģëĭ´": 6426,
      "ĠâĢķ": 6427,
      "ĠëĨįë¯¼": 6428,
      "Ġíķ´ìĥģ": 6429,
      "Ġê°ķìĦ¸": 6430,
      "íī": 6431,
      "Ġì¡´ì¤ĳ": 6432,
      "ê¸°ê³Ħ": 6433,
      "ĠíķĦë¦¬": 6434,
      "ĠëłĮ": 6435,
      "íĮ½": 6436,
      "Ġê·¸ëŁ¼ìĹĲëıĦ": 6437,
      "ĠíĻķìĭł": 6438,
      "Ġ85": 6439,
      "Ġê³µëıĻì²´": 6440,
      "íĥł": 6441,
      "ëĳĺëŁ¬": 6442,
      "Ġì¡°íķŃ": 6443,
      "Ġìĺ¹": 6444,
      "ĠìłĦíĽĦ": 6445,
      "ìķĦëıĻ": 6446,
      "ĠëıĦë°ľ": 6447,
      "Ġëĭ¤ë¦Ħ": 6448,
      "ĠìĪĺëł´": 6449,
      "Ġìŀ¬ëĬ¥": 6450,
      "Ġìķ¼ìĻ¸": 6451,
      "Ġì¶Ķìłģ": 6452,
      "Ġì¤ĳìĪľ": 6453,
      "ĠêµŃìŀ¥": 6454,
      "Ġë¯¼ê°Ĳ": 6455,
      "Ġìĺ¤íĶĦ": 6456,
      "Ġë°°ìłķ": 6457,
      "Ġìķŀìŀ¥ìĦľ": 6458,
      "ë°©íĸ¥": 6459,
      "84": 6460,
      "Ġê¸īëĵ±": 6461,
      "Ġë¥ĺíĺĦì§Ħ": 6462,
      "ĠìĨĮíĻĺ": 6463,
      "ĠíĺĦìĹŃ": 6464,
      "ĠìĿ¸ìļ©": 6465,
      "Ġê°ķê²½": 6466,
      "Ġë³µìĪĺ": 6467,
      "Ġì²Ńì£¼": 6468,
      "ĠìŀĲìĭłê°Ĳ": 6469,
      "Ġì¡°êµŃ": 6470,
      "Ġë³´ì¡°ê¸Ī": 6471,
      "ĠëĤ©ë¶Ģ": 6472,
      "ĠìłĦìĹŃ": 6473,
      "ĠíħĮìĬ¤íĬ¸": 6474,
      "ĠNC": 6475,
      "ĠëıĦë§Ŀ": 6476,
      "Ġì¹¨ëĮĢ": 6477,
      "ìĪĺê¸°": 6478,
      "Ġíķľì§Ħ": 6479,
      "ìħĶìĦľ": 6480,
      "ĠêµĲìŀ¥": 6481,
      "Ġë¶ĪëłĢ": 6482,
      "Ġë³ĳíĸī": 6483,
      "Ġì§Ģì¹¨": 6484,
      "ãİĿ": 6485,
      "ĠíĥľêµŃ": 6486,
      "ĠíĥĪëĿ½": 6487,
      "ĠìĬ¤íģ¬": 6488,
      "Ġëĭ¹ìĤ¬ìŀĲ": 6489,
      "ĠìĶ»": 6490,
      "Ġê²½ë¡ľ": 6491,
      "Ġì§ĢìĿ¸": 6492,
      "Ġë³Ģíķĺ": 6493,
      "Ġê³łëıĦ": 6494,
      "Ġê±°ìłĲ": 6495,
      "Ġë°ľì£¼": 6496,
      "ch": 6497,
      "ìĿĦê¹ĮìļĶ": 6498,
      "Ġìłķíķ´": 6499,
      "Ġìµľìķħ": 6500,
      "Ġ#": 6501,
      "ëĤ´ëħĦ": 6502,
      "ĠìĽĲìľł": 6503,
      "ĠëĤĺíĥĢëĥĪ": 6504,
      "ĠìĹ°ìĺĪìĿ¸": 6505,
      "ĠìĨĮìĥģ": 6506,
      "Ġìĺ¤ë¥¸ìª½": 6507,
      "Ġì¶ĺì²ľ": 6508,
      "ìĤ¬íĥľ": 6509,
      "ìĭ¤íĹĺ": 6510,
      "ĠìĥĪíķ´": 6511,
      "Ġìļ´íķŃ": 6512,
      "Ġì»¤ëĭ¤ëŀĢ": 6513,
      "ìĮį": 6514,
      "Ġêµ¬ëıĦ": 6515,
      "Ġìĺ³": 6516,
      "Ġê¸Īê°ĲìĽĲ": 6517,
      "Ġíķ´êµ°": 6518,
      "ĠìķĦìĿ´íı°": 6519,
      "Ġë³´ìľ¡": 6520,
      "ê°ĸ": 6521,
      "ent": 6522,
      "Ġê³ĦìłĪ": 6523,
      "ĠìĦłìłĦ": 6524,
      "ìĺ·": 6525,
      "ĠìĻ¸êµĲë¶Ģ": 6526,
      "íĬ¹íŀĪ": 6527,
      "ë¡¬": 6528,
      "ĠìĨĮìĿĮ": 6529,
      "ĠëģĬìŀĦìĹĨìĿ´": 6530,
      "ĠìĿĺê²°": 6531,
      "Ġíķľëĭ¤ë©´": 6532,
      "êµĲë¥ĺ": 6533,
      "ëĶĶìŀĲìĿ¸": 6534,
      "ĠëĤĺëŀĢíŀĪ": 6535,
      "ĠìĬ¤íħĮ": 6536,
      "ĠëĬĺëł¤": 6537,
      "íĨłë¡ł": 6538,
      "Ġíĺķìłľ": 6539,
      "ĠêµŃìĦ¸": 6540,
      "ĠëĤĺë¦Ħ": 6541,
      "ìĿ¼ìŀĲ": 6542,
      "ìĭľì½Ķ": 6543,
      "TF": 6544,
      "ĠëıĦìķ½": 6545,
      "Ġìī¬ìļ´": 6546,
      "ĠìĭľëĦĪì§Ģ": 6547,
      "Ġë¶ĢìľĦ": 6548,
      "ĠìĤ´ì§Ŀ": 6549,
      "êµ°ìĪĺ": 6550,
      "Ġìŀ¬ìĽĲ": 6551,
      "Ġíĸīìłķë¶Ģ": 6552,
      "Ġíıīìĸĳ": 6553,
      "ĠëĤĺíĥĢëĤ´": 6554,
      "Ġìĺ¤íĶ¼ìĬ¤íħĶ": 6555,
      "ëħ¸ìĿ¸": 6556,
      "Ġê·¹ëĭ¨": 6557,
      "ìĪŃ": 6558,
      "ìĦ¸ëł¥": 6559,
      "ĠìĹ°ìĦ¤": 6560,
      "Ġì±Ļê¸°": 6561,
      "ĠìķŀìĦł": 6562,
      "ëĨĴ": 6563,
      "Ġ58": 6564,
      "ĠìķĦë¬´ëŀĺëıĦ": 6565,
      "ĠìĹ°ëĭ¤": 6566,
      "Ġê·ĢêµŃ": 6567,
      "Ġëģĵ": 6568,
      "Ġìĭ¤ë§Ŀ": 6569,
      "ĠìĹł": 6570,
      "ë³´ê³ł": 6571,
      "ì§ĢìĽĲê¸Ī": 6572,
      "ĠëģĦëįķ": 6573,
      "Ġëĭ¹ë¶Ħê°Ħ": 6574,
      "Ġê²½ê¸°ìŀ¥": 6575,
      "ëĦ¥": 6576,
      "ĠíĦ¸ìĸ´": 6577,
      "Ġì´Ŀìŀ¬": 6578,
      "Ġëª°ë¦¬": 6579,
      "Ġê¸°ìļ¸ìĿ´": 6580,
      "ĠìĨĮíĶĦíĬ¸ìĽ¨ìĸ´": 6581,
      "ĠìĿ¼ìĸ´ëĤ¬": 6582,
      "ë¬´ê¸°": 6583,
      "ëŁ°ìĬ¤": 6584,
      "Ġê±¸ë¦°": 6585,
      "ĠìĦľì´Ī": 6586,
      "ĠìĭĿë¬¼": 6587,
      "Ġëĳ¥": 6588,
      "ĠCC": 6589,
      "ìŀ¬ëĤľ": 6590,
      "ë¦¬ëĿ¼": 6591,
      "Ġê³łìĥĿ": 6592,
      "Ġíŀĺìŀħ": 6593,
      "Ġê³¼ìĿ¼": 6594,
      "ĠêµĲìľ¡ì²Ń": 6595,
      "ë°ľìłĦìĨĮ": 6596,
      "Ġê¿Īê¾¸": 6597,
      "Ġíİ¸ìĿĺìłĲ": 6598,
      "ìłĦë¬¸ê°Ģ": 6599,
      "ĠêµĲíĨµìĤ¬ê³ł": 6600,
      "Ġ57": 6601,
      "Ġì§Ħìĺģ": 6602,
      "Ġëĭ¹íĻ©": 6603,
      "Ġ1990": 6604,
      "ĠìĿ¼ìĸ´ëĤľ": 6605,
      "Ġê°ļ": 6606,
      "Ġì§ĢëĤľì£¼": 6607,
      "ĠëĦĺìĸ´ê°Ģ": 6608,
      "Ġê°ĢëģĶ": 6609,
      "Ġìµľìĥģ": 6610,
      "ëī": 6611,
      "ĠíĻĶìŀ¥ìĭ¤": 6612,
      "Ġê°Ģë°©": 6613,
      "ë²ĪìĹĲ": 6614,
      "ĠëĮĢíķĺ": 6615,
      "ĠíĥĢìĿ´íĭĢ": 6616,
      "íĺĳìĿĺ": 6617,
      "ê±": 6618,
      "ĠìłĪìĭ¤": 6619,
      "ê³łìĤ¬": 6620,
      "ëĭ¨ìŀ¥": 6621,
      "ĠìľĦíĥģ": 6622,
      "Ġëĵ¤ìĸ´ê°Ī": 6623,
      "Ġê¸°ìļ´": 6624,
      "Ġìĸ´ëĳĲ": 6625,
      "ĠìĦŃì·¨": 6626,
      "ĠíĶĦëłĪ": 6627,
      "Ġìĺģê´ĳ": 6628,
      "ĠíĿ¥íĸī": 6629,
      "2020": 6630,
      "Ġë¶ĢëĵľëŁ¬": 6631,
      "Ġë§Īë²ķ": 6632,
      "Ġìŀ¥ìĭĿ": 6633,
      "Ġë³´íĹĺë£Į": 6634,
      "Ġìĥģê¸Ī": 6635,
      "Ġë¶ĢíĻľ": 6636,
      "Ġíĳľëªħ": 6637,
      "DI": 6638,
      "Ġê°Ħíİ¸": 6639,
      "ì¥Ĳ": 6640,
      "ĠëĦĺê¸°": 6641,
      "Ġê³łìĪĺ": 6642,
      "Ġê±°ì¹ľ": 6643,
      "ĠìĿĦ": 6644,
      "ĠëĦ·": 6645,
      "ĠIC": 6646,
      "åı": 6647,
      "ë°©ë²ķ": 6648,
      "ĠìķĮìķĦë³´": 6649,
      "Ġê°Ģë²¼": 6650,
      "Ġêµ³ìĿ´": 6651,
      "ëĤ¨ëıĦ": 6652,
      "Ġìŀ¥íķĻê¸Ī": 6653,
      "Ġê³µì£¼": 6654,
      "ìĭľëĭ¤": 6655,
      "ĠëĤłìķĦ": 6656,
      "Ġê³łë¬¸": 6657,
      "ĠëıĻëł¥": 6658,
      "ĦìĬ¤": 6659,
      "ë¶Ģì§Ģ": 6660,
      "Ġì½ĶëĦĪ": 6661,
      "íĸīë³µ": 6662,
      "Ġë¶ĢìŀĲ": 6663,
      "ëį°ë¯¸": 6664,
      "ĠëĮĢìĻ¸": 6665,
      "ĠìłĦìķ¡": 6666,
      "ĠíķľëķĮ": 6667,
      "Ġê³¨íĶĦìŀ¥": 6668,
      "Ġê°ľì²Ļ": 6669,
      "Ġë¶ģêµ¬": 6670,
      "Ġê±´ìĦ¤ìĤ¬": 6671,
      "72": 6672,
      "Ġê°Ĳìĥģ": 6673,
      "ìĺ¤íĶĪ": 6674,
      "ë°ķëŀĮíļĮ": 6675,
      "ĠìłĬìĿĢìĿ´": 6676,
      "Ġê¹Ģê¸°": 6677,
      "Ġì§ĢìľĦ": 6678,
      "ëĤŃ": 6679,
      "ĠìĿ´ë¤Ħì§Ī": 6680,
      "íķĺì§Ģë§Į": 6681,
      "ĠìĹ°ë£Į": 6682,
      "Ġë¹Ħë¡Ŀ": 6683,
      "ĠìĿĳìĭľ": 6684,
      "Ġê¶": 6685,
      "ë°Ľì¹¨": 6686,
      "ĠìĿ´ë¡ł": 6687,
      "Ġê°Ģì§Ī": 6688,
      "ëĵĿìłĲ": 6689,
      "íķĺë©´": 6690,
      "Ġì¹¨ë¬µ": 6691,
      "Ġì¼ĢìĿ´ë¸Ķ": 6692,
      "íĬ¸ë¡ľ": 6693,
      "Ġì½ĶìĬ¤ëĭ¥": 6694,
      "Ġì±Ļê²¨": 6695,
      "Ġë¬´ê´Ģ": 6696,
      "Ġëª¨ë¥¸": 6697,
      "UV": 6698,
      "Ġë°ľëĭ¬": 6699,
      "ëĶ±": 6700,
      "Ġê²©ë¦¬": 6701,
      "ê·¸ë¦¬": 6702,
      "ìĸ´ë¶Ļ": 6703,
      "Ġê³łìľł": 6704,
      "ìĪ²": 6705,
      "ĠìĹ°ë°©": 6706,
      "ĠìŀĲë°ľ": 6707,
      "Ġê°Ģê¹Ŀ": 6708,
      "ĠíĿ¡ìĪĺ": 6709,
      "ĠìŀĲêµŃ": 6710,
      "ĠìŀĳëıĻ": 6711,
      "ìĿ¼ìŀĲë¦¬": 6712,
      "ìĹ°íĮ¨": 6713,
      "ĠëĵľëĿ¼ìĿ´": 6714,
      "ĠìĨ¡ëıĦ": 6715,
      "Ġê¸°ìģ¨": 6716,
      "Ġê±´ìĪĺ": 6717,
      "ĠìĭľìĦ¸": 6718,
      "Ġëĵ¤ìĸ´ìĦł": 6719,
      "ìľ¼ìĭľ": 6720,
      "Ġëĭ´ë³´": 6721,
      "ìłľíķľ": 6722,
      "om": 6723,
      "ìļ©ì§Ģ": 6724,
      "Ġëĭ¤ìļ´": 6725,
      "ĠìĨĮì§Ģ": 6726,
      "ĠìłķìĦľ": 6727,
      "Ġìļ©ìĤ°": 6728,
      "ìĸ´ì§Ī": 6729,
      "ĠëĭµíĸĪ": 6730,
      "Ġêµ°ëĮĢ": 6731,
      "Ġìķłì´Ī": 6732,
      "ëĭ¹ìĭł": 6733,
      "Ġì¤ĦìĹ¬": 6734,
      "Ġëĭ¹ëĭ¹": 6735,
      "Ġì¡°ë§Įê°Ħ": 6736,
      "ĠìĿ¸ë¥ĺ": 6737,
      "ï¼Į": 6738,
      "Ġë¯¼ìĭ¬": 6739,
      "ĠìĦ¸ìļ´": 6740,
      "íĳ¸ëĵľ": 6741,
      "Ġìľłì¡±": 6742,
      "Ġì¶ĶëĿ½": 6743,
      "Ġíķĳ": 6744,
      "Ġê³µíĻĶ": 6745,
      "Ġê¸°ìķĦì°¨": 6746,
      "ĠìĿĺìŀĲ": 6747,
      "Ġëĭµëĭµ": 6748,
      "Ġëĭ¬ìķĦ": 6749,
      "OU": 6750,
      "ĠëıĻìŀĳ": 6751,
      "ĠìĪĺìĺģ": 6752,
      "Ġëį°ìĿ´": 6753,
      "íĥ±": 6754,
      "Ġê¾": 6755,
      "Ġê²½ë§¤": 6756,
      "ë°¸ë¦¬": 6757,
      "Ġëĵ¤ìĸ´ìĻĢ": 6758,
      "ĠëĤ«": 6759,
      "ì°½ìĹħ": 6760,
      "Ġê¹Ģìļ©": 6761,
      "Ġìŀ¥êµ°": 6762,
      "ìħīíĬ¸": 6763,
      "Ġíķľì°½": 6764,
      "ì¹´ëį°ë¯¸": 6765,
      "ĠìĿ¸ëıĦëĦ¤ìĭľìķĦ": 6766,
      "ìĨįëıĦ": 6767,
      "ĠìŀĲìĤ¬": 6768,
      "ĠìĤ´íķ´": 6769,
      "ĠìķĦìī¬ìĽĢ": 6770,
      "Ġì§ĢìĹŃêµ¬": 6771,
      "ĠìŀħìĤ¬": 6772,
      "ì°¨ìŀ¥": 6773,
      "ĠëĶĶìĬ¤íĶĮëłĪìĿ´": 6774,
      "ëĵłê°Ģ": 6775,
      "ì°½ì¡°": 6776,
      "Ġìŀ¦": 6777,
      "ĠíķŃìĿĺ": 6778,
      "Ġêµ¬ìĦ±ìĽĲ": 6779,
      "ìłľì²ł": 6780,
      "Ġìĭ¬íķĺ": 6781,
      "Ġìłĳëª©": 6782,
      "Ġíķľìª½": 6783,
      "ë§¤ë§¤": 6784,
      "Ġë¸Ķë£¨": 6785,
      "íĦ±": 6786,
      "ë©ĶìĿ¼": 6787,
      "ĠëĸłëĤ¬": 6788,
      "NA": 6789,
      "Ġíİ¸íķĺ": 6790,
      "Ġë¹µ": 6791,
      "Ġìľłë¡ľ": 6792,
      "Ġ99": 6793,
      "ĠìŀĲìķĦ": 6794,
      "Ġìłķë©´": 6795,
      "ķìĭľì½Ķ": 6796,
      "íķĻëħĦëıĦ": 6797,
      "Ġê·¸ëĤĺë§Ī": 6798,
      "ìķĦìĽĥ": 6799,
      "ë°©ì§Ģ": 6800,
      "ĠìĿ¼ê´Ģ": 6801,
      "ìĺģíĸ¥": 6802,
      "Ġìŀ¥ì°©": 6803,
      "Ġë¸Ķë¡Ŀ": 6804,
      "ìĤ¬ìļ©": 6805,
      "Ġê³łë§Ī": 6806,
      "Ġë¬´ëłµ": 6807,
      "Ġì£½ìĿ´": 6808,
      "ì§Ħë³´": 6809,
      "Ġìĭľê³Ħ": 6810,
      "Ġì²ĺì§Ģ": 6811,
      "Ġíĺģëªħ": 6812,
      "çĶ": 6813,
      "ĠìĿ´ê²¨": 6814,
      "íĺĦìĭ¤": 6815,
      "ĠìĿ´ëģĦ": 6816,
      "Ġìļ°ìļ¸": 6817,
      "Ġì»¤ë®¤ëĭĪíĭ°": 6818,
      "Ġì£¼ë¶Ģ": 6819,
      "ê´ĳê³ł": 6820,
      "ê³±": 6821,
      "Ġì°½ìĽĲìĭľ": 6822,
      "ëŃĲ": 6823,
      "íķľì§Ģ": 6824,
      "Ġíķ´ìĪĺ": 6825,
      "Ġê°ľìŀ¥": 6826,
      "Ġê°Ŀê´Ģ": 6827,
      "ĠìĽĮìĭ±íĦ´": 6828,
      "Ġëĸ¡": 6829,
      "Ġê°ĢìĿ´ëĵľ": 6830,
      "ĠìķĦë¦Ħëĭ¤": 6831,
      "ĠëıĮìķĦìĺ¨": 6832,
      "Ġë¹Ħíĸīê¸°": 6833,
      "Ġë¶Ħëĭ¹": 6834,
      "ĠëĴ¤ëĬ¦": 6835,
      "ĠìĹ¬ì§Ģ": 6836,
      "íĿ¬ë§Ŀ": 6837,
      "ĠìĿĮì£¼": 6838,
      "Ġ\"âĢ¦": 6839,
      "Ġë°ľëª©": 6840,
      "íļĮê³Ħ": 6841,
      "ìĤ¬ë¡Ģ": 6842,
      "Ġëĭ¹íķľ": 6843,
      "ĠìĭľíĤ¤": 6844,
      "ìĭ¤ìłģ": 6845,
      "Ġìħ°": 6846,
      "Ġê¹ĢìĹ°": 6847,
      "ì£¼ìŀĲ": 6848,
      "ĠìŀħìłĲ": 6849,
      "Ġì§Ģëª©": 6850,
      "¹ìĭľ": 6851,
      "Ġíı¬ëŁ¼": 6852,
      "ìĸ´ëĤ´": 6853,
      "ĠìĦľíķ´": 6854,
      "ìĤ°ìĹħëĭ¨ì§Ģ": 6855,
      "Ġë©į": 6856,
      "Ġë°ĺìĦ±": 6857,
      "Ġì¤ĳë°ĺ": 6858,
      "Ġì§ĢëĤ¸": 6859,
      "Ġì¶©ìĭ¤": 6860,
      "ĠíĮĮìĽĮ": 6861,
      "ëĦĲëĵľ": 6862,
      "ĠëıĦëĮĢì²´": 6863,
      "ë¶ĢëıĻìĤ°": 6864,
      "ìĭ¬ë¦¬": 6865,
      "ìĿ¸ì¦Ŀ": 6866,
      "Ġë§Įê¸°": 6867,
      "ìĦ¤ë¹Ħ": 6868,
      "ĠìĹĺë¦¬": 6869,
      "ĠNH": 6870,
      "ĠìĽĮíģ¬": 6871,
      "Ġì¹¸": 6872,
      "ĠìĨĮìħľ": 6873,
      "Ġ4000": 6874,
      "ĠìĨĲìĥģ": 6875,
      "ĠëĩĮë¬¼": 6876,
      "ĠìļĶê±´": 6877,
      "ìĽĮìĦľ": 6878,
      "ìŀĲìĿ´ëĦĪ": 6879,
      "ĠìĪľì²ľ": 6880,
      "ĠíĻķìĭ¤íŀĪ": 6881,
      "æľ": 6882,
      "ĠëıĮìķĦë³´": 6883,
      "Ġê°Ģíķ´": 6884,
      "ëĭ¹ìĭľ": 6885,
      "Ġìĥīê¹Ķ": 6886,
      "Ġìŀ¬ìĥĿ": 6887,
      "ĠìĹĦê²©": 6888,
      "íıŃíĸī": 6889,
      "ê³łêµĲ": 6890,
      "Ġ250": 6891,
      "ìĪĺìĹħ": 6892,
      "ĠíĻĢë¡ľ": 6893,
      "Ġìłķë°Ģ": 6894,
      "Ġë¬´ìĤ¬": 6895,
      "ĠëĤ´ë¹Ħ": 6896,
      "Ġì·¨ê¸ī": 6897,
      "Ġê¹İ": 6898,
      "ë¥´íģ¬": 6899,
      "ëĿ¼ë¦¬": 6900,
      "ĠìĹ°êµ¬ìĨĮ": 6901,
      "Ġì¢ħë¡ľ": 6902,
      "ë§Īëĭ¹": 6903,
      "ë²Ħê·¸": 6904,
      "ĠìĭľìĥģìĭĿ": 6905,
      "ìĨĮíĶĦíĬ¸": 6906,
      "Ġë©´ìłľ": 6907,
      "Ġìĥģìļ©": 6908,
      "ĠìłĢíķŃ": 6909,
      "Ġìķ¼ê°Ħ": 6910,
      "ĠëĸłëĤľ": 6911,
      "Ġ700": 6912,
      "íļ¨ìľ¨": 6913,
      "Ġìľłë§Ŀ": 6914,
      "ĠìķĦëĭĻëĭĪëĭ¤": 6915,
      "Ġê³µìĿµ": 6916,
      "ì£¼ìĭĿ": 6917,
      "ëĮĢêµĲ": 6918,
      "ìĿ¸ìĽĲ": 6919,
      "Ġê´Ģì°°": 6920,
      "Ġë©´ìĹŃ": 6921,
      "ĠíĿĶíŀĪ": 6922,
      "ìĨĮìĦ¤": 6923,
      "Ġë§Įë§Į": 6924,
      "Ġì¼ľ": 6925,
      "Ġìĸ´ìļ°ëŁ¬": 6926,
      "ĠìŀĦìĭł": 6927,
      "Ġë¶Ģì²ľ": 6928,
      "íĥĢìĽĮ": 6929,
      "ĠìĻĢìĿ´": 6930,
      "íİĻ": 6931,
      "ãİľ": 6932,
      "ĠìĩĦ": 6933,
      "ĠâĹı": 6934,
      "ĠìŀĲì¹«": 6935,
      "ĠìĿ´ìĪĺ": 6936,
      "ê°Ħëĭ´íļĮ": 6937,
      "Ġêµ°ìĿ¸": 6938,
      "ĠIP": 6939,
      "Ġ800": 6940,
      "600": 6941,
      "ëĵľë¦°ëĭ¤": 6942,
      "ĠëĲĺì°¾": 6943,
      "ìĮĢ": 6944,
      "Ġë§ĪìĤ°": 6945,
      "Ġìĺ®ê¸°": 6946,
      "02": 6947,
      "Ġì¦Ŀìĸ¸": 6948,
      "ìŀ¬ë£Į": 6949,
      "Ġìĭľê³µ": 6950,
      "ĠëĴ·ë°Ľì¹¨": 6951,
      "Ġì£¼ìĦĿ": 6952,
      "ìľ¼ëł¤": 6953,
      "Ġ51": 6954,
      "åľ": 6955,
      "Ġë§Īì¹¨ëĤ´": 6956,
      "Ġì°½ë¦½": 6957,
      "ìĪĺìĪĺìĥī": 6958,
      "âĦ": 6959,
      "ĠPD": 6960,
      "Ġë²Įìĸ´ì¡Į": 6961,
      "ĠìķĦëĭĲê¹Į": 6962,
      "ë¹µ": 6963,
      "Ġëª¨ëĭĪíĦ°ë§ģ": 6964,
      "ĠìĺĪê¸Ī": 6965,
      "ĠìĦłê±°êµ¬": 6966,
      "ĠìĻľê³¡": 6967,
      "ëıĻêµ¬": 6968,
      "Ġë¶ĪìķĪê°Ĳ": 6969,
      "ìĬ¤íĥĢìĿ¼": 6970,
      "Ġë§īëĮĢ": 6971,
      "ĠëĤĺíĥĢëĤľ": 6972,
      "ì¤Į": 6973,
      "Ġì§Ģë¦¬": 6974,
      "ĠìĭłëĿ¼": 6975,
      "ĠìķĦìłĢìĶ¨": 6976,
      "ĠìłĦëĭ¹": 6977,
      "ĠìľłìĹ°": 6978,
      "ĠìłĢê¸°": 6979,
      "Ġ2001": 6980,
      "Ġë¶Ģìłģ": 6981,
      "ĠìķĦëĭĪë©´": 6982,
      "Ġë¦¬ìĬ¤íģ¬": 6983,
      "ĠëĮĢë¦½": 6984,
      "ìĿ´íģ¬ìĹħ": 6985,
      "íĺ¸ìĿ¸": 6986,
      "Ġì»¤ì¡Į": 6987,
      "ìĿ´ë¯¸": 6988,
      "ĠìĿį": 6989,
      "Ġìĸ´ëĳł": 6990,
      "ĠíĿĻ": 6991,
      "ĠìĤ¬ëĿ¼ì¡Į": 6992,
      "Ġëĸłìĺ¬ëŀĲ": 6993,
      "ìĽĶëĵľì»µ": 6994,
      "ìĸ´ë¦°ìĿ´": 6995,
      "78": 6996,
      "Ġë³¸ìĦł": 6997,
      "ĠìĤ¬ë¬¼": 6998,
      "ê±°ëŀĺìĨĮ": 6999,
      "Ġìŀ¬ë²Į": 7000,
      "Ġê³łìĬ¤": 7001,
      "ë³´ëıĦ": 7002,
      "ëĥĲê³ł": 7003,
      "Ġëĭ¥": 7004,
      "kg": 7005,
      "ĠëĨĴìĿ¼": 7006,
      "ĠëĮĢëŁī": 7007,
      "ìĹ¬ë¦Ħ": 7008,
      "ìĪĺì¤Ģ": 7009,
      "ĠìĤ¬ìļ°": 7010,
      "Ġ54": 7011,
      "ìĺ¤ìĹ¼": 7012,
      "98": 7013,
      "ĠìĤ¬ìĿ´ë²Ħ": 7014,
      "Ġê²ī": 7015,
      "ĠëĮĢëĮĢ": 7016,
      "Ġìĭłì¶ķ": 7017,
      "ĠìĬµê´Ģ": 7018,
      "Ġë²Įìĸ´ì§Ħ": 7019,
      "Ġëĥīìŀ¥": 7020,
      "Ġê¸Īê°ķ": 7021,
      "ìĦľêµ¬": 7022,
      "Ġë³´ìĹ¬ì¤Ģëĭ¤": 7023,
      "Ġê¸°ìĽĲ": 7024,
      "Ġëªħìĭľ": 7025,
      "ĠLED": 7026,
      "Ġë¬´ìĦł": 7027,
      "êµĲê³¼": 7028,
      "ĠìŁģìłĲ": 7029,
      "Ġë°ĺëł¤": 7030,
      "ì±ĦëĦĲ": 7031,
      "íĥĦìĨĮ": 7032,
      "ê¸Īì§Ģ": 7033,
      "Ġë³ĳìĤ¬": 7034,
      "Ġë¶ķê´´": 7035,
      "Ġìĥģíķĺ": 7036,
      "Ġìłģìłķ": 7037,
      "ìķħê´Ģ": 7038,
      "Ġ\"(": 7039,
      "ìĿĮìĭĿ": 7040,
      "êµ¬ìŀ¥": 7041,
      "Ġì¦ĿìĿ¸": 7042,
      "ĠíĻľëł¥": 7043,
      "íĥĢë¯¼": 7044,
      "iv": 7045,
      "Ġê¹¨ëĭ¬": 7046,
      "ĠìķĦíĶĶ": 7047,
      "Ġìĥģìĺģ": 7048,
      "İĦ": 7049,
      "ĠìłĦìĽĶ": 7050,
      "ìĿ¼ë¦¬": 7051,
      "ë²ĶìľĦ": 7052,
      "ìĥĿíĥľ": 7053,
      "ìĸ´ëĦ£": 7054,
      "Ġë¬´ì£Ħ": 7055,
      "Ġë°ľíļ¨": 7056,
      "ĠìĦľë¶Ģ": 7057,
      "Ġì²Ńë¬¸íļĮ": 7058,
      "Ġê³Ħìĭľ": 7059,
      "Ġë²łìĬ¤íĬ¸": 7060,
      "Ġìŀ¥ìĤ¬": 7061,
      "íķ´ì§Ħëĭ¤": 7062,
      "ĠíĥĢëĭ¹": 7063,
      "Ġìłľìŀĳì§Ħ": 7064,
      "ĠìĮįìļ©": 7065,
      "Ġëĭ¤ê°Ģìĺ¤": 7066,
      "Ġëĵ±íĮĲ": 7067,
      "ĠìĨĮìĪĺ": 7068,
      "Ġì´Īëŀĺ": 7069,
      "ìĥģê¸Ī": 7070,
      "ĠìŀĲì¡´": 7071,
      "Ġê°ĢìłĦ": 7072,
      "ĠìĽĲë£Į": 7073,
      "Ġê³µìĤ°": 7074,
      "ìĤ¬ìĽĲ": 7075,
      "Ġìĭłë¶Ģ": 7076,
      "ĠëĦĲë¦¬": 7077,
      "ĠêµŃë©´": 7078,
      "Ġì²«ëĤł": 7079,
      "Ġê¸īìĹ¬": 7080,
      "Ġê´ĢëĤ´": 7081,
      "Ġì±ĦìĽĮ": 7082,
      "ëĿ¼íĨ¤": 7083,
      "ì½ĺíħĲì¸ł": 7084,
      "íħĮìĿ¼": 7085,
      "ìĭłìļ©": 7086,
      "Ġê±°ìłĪ": 7087,
      "Ġê°Ħëĭ¤": 7088,
      "Ġì£ĦìĨ¡": 7089,
      "ĠíĿĺë¦¬": 7090,
      "ĠLH": 7091,
      "ĠíķŃê³µê¸°": 7092,
      "ĠëĤĺëī": 7093,
      "un": 7094,
      "ĠíĿĶëĵ¤ë¦¬": 7095,
      "Ġê³Ħëĭ¨": 7096,
      "Ġë¬¼íĴĪ": 7097,
      "Ġìĸ´ì©Įë©´": 7098,
      "ĠëĤ´ëł¤ê°Ģ": 7099,
      "íĭ°ì¦Į": 7100,
      "Ġìĭľìĭł": 7101,
      "ĠíķľëıĦ": 7102,
      "ì§Ħìĺģ": 7103,
      "Ġ68": 7104,
      "ĠíķĻê³¼": 7105,
      "Ġìĭłë°ľ": 7106,
      "ìĹĲìĿ´": 7107,
      "Ġì´Ŀëł¥": 7108,
      "ëĴ¤": 7109,
      "ĠëĤ¨ê²¼": 7110,
      "ëĭ¨ì²´ìŀ¥": 7111,
      "ĠëĽ°ìĸ´ëĤĺ": 7112,
      "ĠìĤ°ì±ħ": 7113,
      "Ġëħ¸íĬ¸": 7114,
      "Ġìĭ¬íķľ": 7115,
      "ĠìķķìĪĺìĪĺìĥī": 7116,
      "íĻķìĿ¸": 7117,
      "ĠìĦ¸íĥģ": 7118,
      "Ġê°ĸì·Ħ": 7119,
      "ìĿ¼ë°ĺ": 7120,
      "Ġíıīë²Ķ": 7121,
      "Ġë¶Ģì´Ŀë¦¬": 7122,
      "ì°¨ë³Ħ": 7123,
      "Ġì§ĳê°Ĵ": 7124,
      "Ġìĩ¼íķĳëª°": 7125,
      "ĠíĥĪì¶ľ": 7126,
      "íļĮë³µ": 7127,
      "ĠìĺģìĽĲ": 7128,
      "ëĲľëĭ¤ê³ł": 7129,
      "ĠìĿ´ìłł": 7130,
      "ĠìĪĺìĦ±": 7131,
      "ĠëıĦì¤ĳ": 7132,
      "ë¸Įëŀľëĵľ": 7133,
      "ëĮĢíĸī": 7134,
      "ig": 7135,
      "ìĦ¸ìĥģ": 7136,
      "ëĿ¼ëĭĪ": 7137,
      "ë¬´ëĮĢ": 7138,
      "Ġì£¼íķľ": 7139,
      "ĠíķĦë¦¬íķĢ": 7140,
      "ĠëıĻê³Ħ": 7141,
      "Ġì£¼ìŀĲ": 7142,
      "ï½į": 7143,
      "ìľ¼ëł¤ê³ł": 7144,
      "Ġê°ľê´Ģ": 7145,
      "Ġëªħì¹Ń": 7146,
      "ê´ĢìľĦ": 7147,
      "Ġìŀ¬íķĻ": 7148,
      "íĬľëĶĶìĺ¤": 7149,
      "Ġë°ľìĿĺ": 7150,
      "Ġë¬´ëįĶ": 7151,
      "ĠìĦ°": 7152,
      "Ġëŀľ": 7153,
      "Ġê°ĢëĤľ": 7154,
      "ìŀİ": 7155,
      "ìłĢíŀĪ": 7156,
      "Ġê¹Ģë¯¼": 7157,
      "ë¸Įë¦¬ëĵľ": 7158,
      "ê°Ģìļ´": 7159,
      "ìĪĺì¶ľ": 7160,
      "ĠìķĪëıĻ": 7161,
      "Ġê·¼ëĮĢ": 7162,
      "Ġë°ķë¬¼ê´Ģ": 7163,
      "Ġë§ŀëĮĢ": 7164,
      "ĠìłģìĿĳ": 7165,
      "Ġì§ĢëĤĺê°Ģ": 7166,
      "ëĮĢíķĻìĽĲ": 7167,
      "ìĦ±êµ°": 7168,
      "Ġë·°": 7169,
      "ĠíĻ©ê¸Ī": 7170,
      "ìĿ¸ëį°ìļĶ": 7171,
      "Ġëĵłëĭ¤": 7172,
      "Ġì§Ħì§Ģ": 7173,
      "ĠìĥģíĻĺ": 7174,
      "íķ©ìĿĺ": 7175,
      "Ġì°¸ê³ł": 7176,
      "Ġê°ķìļĶ": 7177,
      "ĠìĿ´ìĺģ": 7178,
      "ìĹ¬ê±´": 7179,
      "ĠíĮ¨íĦ´": 7180,
      "ĠëĤ´ëĭ¤": 7181,
      "ë¶Ģì±Ħ": 7182,
      "ĠìĹ¿": 7183,
      "ĠìĹĲìĿ´": 7184,
      "Ġê·¹ìŀ¥": 7185,
      "Ġëª»íķľëĭ¤": 7186,
      "Ġëĵ¤ë¦¬": 7187,
      "íħįìĬ¤": 7188,
      "ëĪĶ": 7189,
      "ë¯¸ìĪłê´Ģ": 7190,
      "Ġìĥģíĸ¥": 7191,
      "ĠëĤ´ë°Ģ": 7192,
      "ĠêµĲìĭ¤": 7193,
      "ìĿ´ëĿ¼": 7194,
      "Ġìłģìĸ´ëıĦ": 7195,
      "Ĺ¥": 7196,
      "ĠìħĶ": 7197,
      "Ġìłķë¬´": 7198,
      "ĠìķĦìī½": 7199,
      "Ġì¡°ìĨį": 7200,
      "ĠìŀĦëĮĢë£Į": 7201,
      "ĠìĿ´ë¯¼": 7202,
      "ĠíķĻìĪł": 7203,
      "Ġì³¤": 7204,
      "Ġ1500": 7205,
      "Ġê¸°ê¸Ī": 7206,
      "Ġíķ´ê³ł": 7207,
      "ĠìĿ¼ë°ĺìĿ¸": 7208,
      "íħĮë¦¬ìĸ´": 7209,
      "ìŀħëĭĪê¹Į": 7210,
      "Ġíį¼ìĦ¼íĬ¸": 7211,
      "Ġë³¸íļĮìĿĺ": 7212,
      "LED": 7213,
      "Ġê°ķëĤ¨êµ¬": 7214,
      "Ġê´Ģíĸī": 7215,
      "ë¹¨ë¦¬": 7216,
      "Ġì¤ĳêµŃìĿ¸": 7217,
      "ëĶĶìķĦ": 7218,
      "ĠëĽ°ìĸ´ëĵ¤": 7219,
      "Ġìķķëł¥": 7220,
      "íĿ¥ë¯¼": 7221,
      "íĻĪëŁ°": 7222,
      "ìĥĺ": 7223,
      "ìŀħìŀĲ": 7224,
      "Ġê³µê³ł": 7225,
      "íķ´ìļ´": 7226,
      "ĠíĥĳìĬ¹": 7227,
      "êµĲìĭ¤": 7228,
      "ĠëĪĮ": 7229,
      "íĴĢìĿ´": 7230,
      "íĹ¨": 7231,
      "ë³´ëĵľ": 7232,
      "79": 7233,
      "ë³´ê³łìĦľ": 7234,
      "ëıĻìĽĲ": 7235,
      "Ġëı¼ìķ¼": 7236,
      "ìĬ¤ëłĪ": 7237,
      "ë¦½ëĭĪëĭ¤": 7238,
      "Ġë§¤ëĭĪ": 7239,
      "ĠìĿĺë¥ĺ": 7240,
      "ìĹ°ìĬ¹": 7241,
      "Ġë¬´ì²Ļ": 7242,
      "ìľĦíĹĺ": 7243,
      "ëª¨ìŀĦ": 7244,
      "as": 7245,
      "ĠìłĳìĨį": 7246,
      "Ġì§Ģíĸ¥": 7247,
      "ê·¼ë¬´": 7248,
      "Ġë§ĮíĻĶ": 7249,
      "ĠíĽĶ": 7250,
      "ëĬĦ": 7251,
      "ìĨĮë°©": 7252,
      "ì²ĺìŀ¥": 7253,
      "Ġíĳ¸ë¥¸": 7254,
      "Ġìĺģìŀ¥": 7255,
      "ë¦¬íĭ°": 7256,
      "ĠíĨ±": 7257,
      "ìĨŁ": 7258,
      "ĠìłķíĻ©": 7259,
      "ĠíĿĳìŀĲ": 7260,
      "Ġë»Ĺ": 7261,
      "ëªħëł¹": 7262,
      "Ġë³¸ì§Ī": 7263,
      "Ġ2021": 7264,
      "ĠìĺĪìĤ°ìķĪ": 7265,
      "Ġëĭ¤ì§Ĳ": 7266,
      "Ġê°Ĳë©´": 7267,
      "ìĸ´ì´Į": 7268,
      "Ġë§Īëĭ¹": 7269,
      "ĠëłĪëĵľ": 7270,
      "Ġìŀ¥ìĪĺ": 7271,
      "íĨ¨": 7272,
      "ĠìĹ¬ìĤ¬": 7273,
      "Ġê³µìĿ¸": 7274,
      "ê¸´ëĭ¤": 7275,
      "ĠíİĺìĬ¤íĭ°ë²Į": 7276,
      "Ġì¶ľìŀ¥": 7277,
      "ê²¹": 7278,
      "Ġê°Ĳì¶Ķ": 7279,
      "ê²¸": 7280,
      "Ġìĭłìŀ¥": 7281,
      "ê·¸ëıĻìķĪ": 7282,
      "ĠíħĮìĿ´ë¸Ķ": 7283,
      "ë¬´ìĦ±": 7284,
      "ĠëĤĺê°Ħ": 7285,
      "Ġë©Ķëª¨": 7286,
      "Ġ1980": 7287,
      "ĠìĹ°ìĿ¸": 7288,
      "íĺ¸ê¸°": 7289,
      "Ġë´ĲëıĦ": 7290,
      "Ġì°°": 7291,
      "Ġë°ķì°¨": 7292,
      "Ġê³łë°±": 7293,
      "ĠìĿ´ë¤Ħì§Ģì§Ģ": 7294,
      "ìŀ¡ìĿ´": 7295,
      "ĠìĥĿê³Ħ": 7296,
      "ĠíķľìłĦ": 7297,
      "ìŀ¬ìĿ¸": 7298,
      "Ġê²¬ìłľ": 7299,
      "Ġíķ©ì³Ĳ": 7300,
      "Ġíĥľìĸ´ëĤĺ": 7301,
      "Ġì§Ŀ": 7302,
      "Ġë¶ĦìĤ°": 7303,
      "Ġëª©íı¬": 7304,
      "ìĺģíĻĶìłľ": 7305,
      "ĠìĨĮìľĦ": 7306,
      "ë§ĪìĿĮ": 7307,
      "ĠëĤ¨ìĸĳ": 7308,
      "ĠíķŃìĨĮ": 7309,
      "Ġ56": 7310,
      "ĠìĤ¬ë¦½": 7311,
      "Ġë©ĶìĿ´íģ¬ìĹħ": 7312,
      "ation": 7313,
      "ë©Ķë¦¬": 7314,
      "ĠìĹ¬ê²¨": 7315,
      "Ġ64": 7316,
      "Ġë°±ìķħê´Ģ": 7317,
      "ĠíħĶ": 7318,
      "ĠìĪĺìĥģìŀĲ": 7319,
      "ĠëıĻë¶ģ": 7320,
      "Ġê·¸ë¶Ħ": 7321,
      "ĠìĭłíĻĶ": 7322,
      "ĠìĦ¬ìľł": 7323,
      "MF": 7324,
      "ĠìĿ´ë£¬": 7325,
      "Ġê°ķëıĦ": 7326,
      "ëİ": 7327,
      "ĠìĦ¸ë¯¸ëĤĺ": 7328,
      "Ġê°Ģëł¤": 7329,
      "ĠëĶ°ì§Ģ": 7330,
      "ĠíļĮìĪĺ": 7331,
      "Ġíģ´ëĿ¼ìļ°ëĵľ": 7332,
      "ĠíĻĶìĿ´íĬ¸": 7333,
      "ĠìĦłë³´ìĿ¼": 7334,
      "íĻĶìŀ¬": 7335,
      "Ġ53": 7336,
      "Ġìłģë¦½": 7337,
      "ĠìĹ¬ê°Ŀ": 7338,
      "ĠìĥĿìĥĿ": 7339,
      "Ġë©¸": 7340,
      "Ġì¤ĳê²¬": 7341,
      "Ġìŀ¥ìķħ": 7342,
      "Ġìĥģì£¼": 7343,
      "Ġë§ĺ": 7344,
      "Ġìĸµìłľ": 7345,
      "Ġìĸĳì¸¡": 7346,
      "ê³łëĵ±íķĻêµĲ": 7347,
      "ìĽĲìĿĢ": 7348,
      "Ġíĭ°ì¼ĵ": 7349,
      "ĠëĦ¥ìĦ¼": 7350,
      "ê²½ê¸°ëıĦ": 7351,
      "ĠëĨĵì¹ĺ": 7352,
      "ìĪĺëĭ¹": 7353,
      "ĠìĿĮë£Į": 7354,
      "ĠìĹĩê°Ī": 7355,
      "Ġëĭ¹ìĽĲ": 7356,
      "ê³ĦìĹ´": 7357,
      "Ġì§ĢìĽĲê¸Ī": 7358,
      "Ġìŀ¥ë¡Ģ": 7359,
      "ìľłì§Ģ": 7360,
      "ĠìĤ¬ëł¹": 7361,
      "ĠìĺĪìĦł": 7362,
      "Ġë§¤ìĽĶ": 7363,
      "ĠëĤ¨êµ¬": 7364,
      "Ġì¹Ńì°¬": 7365,
      "Ġë¨¹ê±°ë¦¬": 7366,
      "Ġëĭ¤ì±Ħ": 7367,
      "ëª¨ìħĺ": 7368,
      "ìĿ¸ìĥģ": 7369,
      "ëĿ¼ìĿ´íĬ¸": 7370,
      "ìĽĲëĮĢ": 7371,
      "ëŀĳìĿ´": 7372,
      "ĠëĽ°ìĸ´ëĦĺ": 7373,
      "ĠìĪĺë©´": 7374,
      "Ġê³µë°©": 7375,
      "Ġëª¨ë¥¼": 7376,
      "íİĺìĿ´ìĬ¤": 7377,
      "Ġë°ĶëĢĲ": 7378,
      "íĦ°ë¯¸ëĦĲ": 7379,
      "ìĬ¤íĬ¸ëĿ¼": 7380,
      "Ġì¶ľíĮĲ": 7381,
      "ĠìĽ¬": 7382,
      "Ġì¡±": 7383,
      "Ġìŀĳê³¡": 7384,
      "Ġë¯¸ì¹ľ": 7385,
      "Ġê³łìĬ¤ëŀĢíŀĪ": 7386,
      "Ġë³Ħëĭ¤ë¥¸": 7387,
      "2015": 7388,
      "Ġê³łìłĦ": 7389,
      "ì¤ĳìĨĮê¸°ìĹħ": 7390,
      "ì·¨ìĹħ": 7391,
      "Ġë¬¸êµ¬": 7392,
      "ìĨĮìĭľ": 7393,
      "Ġê¸°ìŀ¬": 7394,
      "ĠìĪĺë¶Ħ": 7395,
      "íı¬íĬ¸": 7396,
      "ìĽĮíķĺ": 7397,
      "ì§Ģë¶Ģ": 7398,
      "Ġì½ĺìħīíĬ¸": 7399,
      "íĨµìĿ¼": 7400,
      "ĠìĹ´ê¸°": 7401,
      "íĪ¬ëªħ": 7402,
      "ì½Ķëĵľ": 7403,
      "Ġì§Ļ": 7404,
      "ĠìĿ´ëª¨": 7405,
      "ìľµíķ©": 7406,
      "ë§¤ê¹Ģ": 7407,
      "ìĬĪíį¼": 7408,
      "Ġë¹Ħíķĺ": 7409,
      "Ġíı¬íĦ¸": 7410,
      "Ġíı¬ì°©": 7411,
      "Ġë°ķì§Ģ": 7412,
      "Ġê´ĳíĻĶë¬¸": 7413,
      "ë£¨ì¦Ī": 7414,
      "ĠìľłìłĦìŀĲ": 7415,
      "ĠìĭľìĪł": 7416,
      "Ġì¶Ķì²¨": 7417,
      "ì¢Įê´Ģ": 7418,
      "Ġíķľê°ķ": 7419,
      "Ġì¤ĳê³ł": 7420,
      "ĠëĮĢëĭ¤ìĪĺ": 7421,
      "Ġ95": 7422,
      "Ġìĸ´ëł¤ìĽł": 7423,
      "Ġì§ģìŀ¥ìĿ¸": 7424,
      "Ġíĸ¥íķĺ": 7425,
      "íķłê¹Į": 7426,
      "ĠíĶ¼ë¡ľ": 7427,
      "ìĦ¸ìĿ´": 7428,
      "Ġì²«ì§¸": 7429,
      "ĠìĥĿê¸¸": 7430,
      "ë°Ģë¦¬": 7431,
      "ĠíĥĦíĥĦ": 7432,
      "ĠíĪ¬ê¸°": 7433,
      "íĥĢìŀĲ": 7434,
      "Ġëĭ¹ìĦłìŀĲ": 7435,
      "ĠìŀĲë¦¬ë§¤ê¹Ģ": 7436,
      "ìķĦë¬´": 7437,
      "ĠêµŃìĸ´": 7438,
      "Ġìľ¡ìķĦ": 7439,
      "Ġê·¸ëłĩì§Ģë§Į": 7440,
      "ĠìķĦìĭľìķĪ": 7441,
      "MC": 7442,
      "ìĪĺìŀħ": 7443,
      "ĠìĪľíĻĺ": 7444,
      "Ġëªħë¶Ħ": 7445,
      "ìĿ¸ì¹ĺ": 7446,
      "Ġìľ¤ë¦¬": 7447,
      "ĠìĤŃìłľ": 7448,
      "ĠìłĦìĪĺ": 7449,
      "Ġë¬¸ê±´": 7450,
      "ìĹĶíĦ°": 7451,
      "êº¼ë²ĪìĹĲ": 7452,
      "ë¯¸ìĤ¬ìĿ¼": 7453,
      "Ġ67": 7454,
      "Ġìļķìĭ¬": 7455,
      "ê¹¥": 7456,
      "ĠìĿ´íĥľ": 7457,
      "ì²¨ëĭ¨": 7458,
      "ìĭ¸ìĽĢ": 7459,
      "ĠíĺĪìķ¡": 7460,
      "ìĽĮëĵľ": 7461,
      "Ġì£¼ë¨¹": 7462,
      "ëľ¨ëł¸": 7463,
      "Ġ2022": 7464,
      "Ġíĺĳë°ķ": 7465,
      "Ġíķľë¥ĺ": 7466,
      "ĠìľłìķĦ": 7467,
      "ìĭľë§Ī": 7468,
      "Ġíķľë¯¸": 7469,
      "ĠíĮ¨ëĦĲ": 7470,
      "Ġê¹Ģê´ĳ": 7471,
      "2018": 7472,
      "ë¨¼ìĬ¤": 7473,
      "ëłīìĬ¤": 7474,
      "Ġì¦Ĳê²ģ": 7475,
      "Ġì¹ĺë£Įìłľ": 7476,
      "Ġë¬´ìĸ¸": 7477,
      "SA": 7478,
      "ĠìĿ´ìĸ´ì§Ħ": 7479,
      "ĠìĺĪìĻ¸": 7480,
      "Ġì±Ħìļ°": 7481,
      "íı¬êµ¬": 7482,
      "Ġë¹Ħìĭ¼": 7483,
      "ĠëĦ¤íĭ°ì¦Į": 7484,
      "ĠìķĦíĶĪ": 7485,
      "âĹ": 7486,
      "Ġë°ľë§¤": 7487,
      "ìħĶìķ¼": 7488,
      "ê°Ģë£¨": 7489,
      "Ġìĥģê¶Į": 7490,
      "ĠëĳĺëŁ¬ìĭ¸": 7491,
      "íĸīëıĻ": 7492,
      "Ġë©ķìĭľì½Ķ": 7493,
      "Ġé": 7494,
      "Ġì£¼ë¥ĺ": 7495,
      "ê·¸ë¦°": 7496,
      "Ġê¸°ìģĺ": 7497,
      "ìĹĦë§Ī": 7498,
      "Ġì§ĢëĥĪ": 7499,
      "ĠìĤ¬íĿĺ": 7500,
      "Ġê°ĦíĮĲ": 7501,
      "ĠCCTV": 7502,
      "Ġì¶ľê°Ħ": 7503,
      "Ġë¦¬ëª¨": 7504,
      "Ġìŀłìĭ¤": 7505,
      "ì§ĳíĸī": 7506,
      "Ġìĸµìļ¸": 7507,
      "ëĦ¤íĬ¸ìĽĮíģ¬": 7508,
      "Ġë©´ëĭ´": 7509,
      "ìłľìĿ¼": 7510,
      "Ġì¤ĦìĿ¼": 7511,
      "ëıĻì¡°íķ©": 7512,
      "Ġíķľêº¼ë²ĪìĹĲ": 7513,
      "ĠëĶ´": 7514,
      "íĬ¹ìľĦ": 7515,
      "Ġ180": 7516,
      "ĠìĭľëĤĺ": 7517,
      "ĠìłķìĿĺëĭ¹": 7518,
      "Ġë°Ķëĭ·": 7519,
      "ĠìĥĿë¬¼": 7520,
      "ĠìĽĲë¦¬": 7521,
      "ĠìķĪê±´": 7522,
      "ĠëĬĻ": 7523,
      "Ġë§Īëķħ": 7524,
      "ĠìĦľëĳĺëŁ¬": 7525,
      "Ġëĵ¤ìĸ´ìĺ¨": 7526,
      "ì¤Ģíĳľ": 7527,
      "Ġëįĺì¡Į": 7528,
      "Ġê³°": 7529,
      "Ġì£¼ìłĢ": 7530,
      "Ġë°ľê°Ħ": 7531,
      "íķ´ìĻ¸": 7532,
      "ìĿĺíķĻ": 7533,
      "ê³µìłľ": 7534,
      "Ġíķ¨ìľł": 7535,
      "Ġê²¬íķ´": 7536,
      "Ġê³µìĦ¸": 7537,
      "ĠìĪĺê°ķ": 7538,
      "ĠX": 7539,
      "ĠìĽĲì²ľ": 7540,
      "Ġëª¨ë²Ķ": 7541,
      "ĠìĻľëĥĲíķĺë©´": 7542,
      "êµ¬ë¦¬": 7543,
      "of": 7544,
      "ëŀľíĬ¸": 7545,
      "å°": 7546,
      "ê²ĢíĨł": 7547,
      "Ġì¦Ĳê±°ìĽĢ": 7548,
      "ĠìłķìĦ¸": 7549,
      "ĠíĨ¡": 7550,
      "Ġëĭ¤ìĿ´ìĸ´": 7551,
      "ê·¸ëłĪìĿ´ëĵľ": 7552,
      "Ġì¦ĿëĮĢ": 7553,
      "ì¶Ķíĸī": 7554,
      "ìĤ¬ìłķ": 7555,
      "Ġìĭ¬ìłķ": 7556,
      "ĠìĥģëĮĢë°©": 7557,
      "Ġìŀ¬ë°ľ": 7558,
      "Ġê¸°ì§Ģ": 7559,
      "ìĤ¬ëł¹": 7560,
      "ĠìĿ¼ìĦł": 7561,
      "Ġêµ½": 7562,
      "ĠìĤŃê°Ĳ": 7563,
      "ëĦĮ": 7564,
      "Ġê±¸ë¡ľ": 7565,
      "Ġë°°ìĨ¡": 7566,
      "ìĺ¤ë¥¸": 7567,
      "Ġì¸¡ê·¼": 7568,
      "Ġì¶ĶìĤ°": 7569,
      "ĠìĦłìĪĺëĭ¨": 7570,
      "Ġìķłìłķ": 7571,
      "íķĦìļĶ": 7572,
      "Ġëĭĺ": 7573,
      "Ġì¢ħìĤ¬ìŀĲ": 7574,
      "ĠìĦłë³Ħ": 7575,
      "Ġê±°ìĦ¸": 7576,
      "ĠìĥĿìĤ°ëŁī": 7577,
      "ìłĢìĬ¤": 7578,
      "Ġì±Ħë¬´": 7579,
      "Ġê¸ĪìĨį": 7580,
      "ĠëĵĢ": 7581,
      "Ġë¡ľëĵľ": 7582,
      "Ġë¶Ħê¸°": 7583,
      "BA": 7584,
      "ĠìĬ¬ë¡ľ": 7585,
      "Ġëĵ±ë¡Ŀê¸Ī": 7586,
      "Ġê·¸ìķ¼ë§Ĳë¡ľ": 7587,
      "Ġì£¼ë°©": 7588,
      "ĠíĻ©ìłľ": 7589,
      "Ġê°ĢìĤ¬": 7590,
      "Ġíķ´ìķĪ": 7591,
      "ĠìĪĺìĽĲìĭľ": 7592,
      "ê²½ì£¼": 7593,
      "ĠìķĦëĤĺ": 7594,
      "Ġë¬¸ìĦľ": 7595,
      "ëĿ¼ìĹĺ": 7596,
      "Ġë²ĪìĹŃ": 7597,
      "Ġì£¼ìĨĮ": 7598,
      "ë¸Ķë¡Ŀ": 7599,
      "íħĢ": 7600,
      "åŃ": 7601,
      "ĠëĶ°ìł¸": 7602,
      "Ġëĭ¨íĸī": 7603,
      "ĮĹ": 7604,
      "Ġìĺ¤ë¥¼": 7605,
      "ìĹ¬ê¸Ī": 7606,
      "Ġë°Ķê¹¥": 7607,
      "ĠìķĪë°©": 7608,
      "ëįľëŀĢëĵľ": 7609,
      "ĠëĨĢëŀĲ": 7610,
      "ë¶Ģë¶Ģ": 7611,
      "íĪ°": 7612,
      "ìĤ°ëĭ¨": 7613,
      "ĠìĬ¹ìļ©ì°¨": 7614,
      "ĠëıĮëł¸": 7615,
      "Ġê°ĳìŀĳ": 7616,
      "ĠìĿĳëĭµìŀĲ": 7617,
      "ë¦ŃìĬ¤": 7618,
      "Ġíı¬ìĬ¤íĬ¸": 7619,
      "ĠëĤĻëıĻê°ķ": 7620,
      "ìĺ¹": 7621,
      "ìłľìŀĳ": 7622,
      "ìĨĮíĨµ": 7623,
      "Ġëĵľë¡ł": 7624,
      "íĴĪì§Ī": 7625,
      "ĠìĪĺìľĦ": 7626,
      "ëĤĺìĺ¤": 7627,
      "ĠìĽĶê¸ī": 7628,
      "ĠìĿ¸ìłĳ": 7629,
      "ĠíĥĦìĨĮ": 7630,
      "ë°ľíĳľ": 7631,
      "ê³§": 7632,
      "Ġë©ĺíĨł": 7633,
      "ìĸ´ë¦¬": 7634,
      "ëĮĢíķľë¯¼êµŃ": 7635,
      "Ġê´ĳëªħ": 7636,
      "Ġê³łëł¤ëĮĢ": 7637,
      "ìĸ¸ëįĶ": 7638,
      "Ġìµľìļ°ìĦł": 7639,
      "Ġ66": 7640,
      "ĠìĿ´ë¦¬": 7641,
      "ì»·": 7642,
      "Ġê·ľëªħ": 7643,
      "íĪ¬ìĪĺ": 7644,
      "74": 7645,
      "ë¦¬ì¼ĢìĿ´ìħĺ": 7646,
      "ĠëªħìĦ±": 7647,
      "Ġê´Ģì¤ĳ": 7648,
      "Ġì£¼ê°Ħ": 7649,
      "Ġê³µì¤ĳ": 7650,
      "ĠëĲłì§Ģ": 7651,
      "ìłĦíĻĺ": 7652,
      "ëĮĢìļ°": 7653,
      "ĠíĺĳíļĮ": 7654,
      "Ġë²Īíĺ¸": 7655,
      "ì£¼êµ°": 7656,
      "2016": 7657,
      "ĠíĹĽ": 7658,
      "íķĺëĬĺ": 7659,
      "ĠìĹ°ìĦ¸ëĮĢ": 7660,
      "Ġëª»ì§Ģ": 7661,
      "ĠëıĦëįķ": 7662,
      "Ġìŀ¬ê³ł": 7663,
      "ëįĺê°Ģ": 7664,
      "ĠëĶĶìŀĲìĿ´ëĦĪ": 7665,
      "Ġê³µê¸°ìĹħ": 7666,
      "ĠìĻ¸ì¹ĺ": 7667,
      "ìİĦ": 7668,
      "ĠíĬ¹íĺľ": 7669,
      "ëĿ¼ìĬ¤íĭ±": 7670,
      "ĠëĤļ": 7671,
      "ìłķëıĦ": 7672,
      "Ġë¶ģë¶Ģ": 7673,
      "ëĨįêµ¬": 7674,
      "ëĸ¼": 7675,
      "ì¹´íİĺ": 7676,
      "Ġë°ĺìłĦ": 7677,
      "ëĶ¸": 7678,
      "Ġëĭ¨ëĭ¨": 7679,
      "Ġë¡ł": 7680,
      "ë©ĶìĿ´ìħĺ": 7681,
      "Ġìĥģíķľ": 7682,
      "ĠëĿ¼ê³ł": 7683,
      "ĠìĽĲìŀĲëł¥": 7684,
      "ë¬¼ìĤ°": 7685,
      "íĪ¼": 7686,
      "ĠìĻ¸ëª¨": 7687,
      "ĠìľĦíķ´ìĦł": 7688,
      "Ġìĥĺ": 7689,
      "Ġë©ĭì§Ħ": 7690,
      "ĠìłĢìĨĮëĵĿì¸µ": 7691,
      "Ġê´ĢìĹ¬": 7692,
      "ì§ĢëĭĪìĸ´": 7693,
      "ĠìĿ´ë¡Ģ": 7694,
      "ĠìĪĺì§Ī": 7695,
      "Ġíķľê¸Ģ": 7696,
      "Ġê´ĢìłĪ": 7697,
      "Ġë³´ìłĦ": 7698,
      "Ġíĸīì§Ħ": 7699,
      "ê²½ìĺģìŀĲ": 7700,
      "Ġ63": 7701,
      "Ġë°ĽìķĦëĵ¤ìĹ¬": 7702,
      "Ġ69": 7703,
      "ES": 7704,
      "ĠìĬ¤ì¼Ģ": 7705,
      "Ġë¶ĢëŁ¬": 7706,
      "Ġìĥģìĭ¤": 7707,
      "Ġë°´ëĵľ": 7708,
      "Ġì¢ħìłĦ": 7709,
      "ëª¨ëĵł": 7710,
      "ĠëĤ´ì£¼": 7711,
      "ĠëıĦëĦĲëĵľ": 7712,
      "Ġê°Ĳì§Ģ": 7713,
      "Ġì¹ĺìľł": 7714,
      "ê¸°ë¶Ģ": 7715,
      "ĠìĨĲíĿ¥ë¯¼": 7716,
      "ĠìĤ¬íĽĦ": 7717,
      "ĠìĸĳìĭĿ": 7718,
      "Ġë²ĮìĿ¸": 7719,
      "Ġíķ´ë²ķ": 7720,
      "Ġê´Ģê´ĳì§Ģ": 7721,
      "Ġê¸īìĭĿ": 7722,
      "ìĿ¸ìĭĿ": 7723,
      "Ġê²Įìŀ¬": 7724,
      "Ġë°°ìĥģ": 7725,
      "Ġê°Ģë§ĮíŀĪ": 7726,
      "ĠìĪĺìĹ¬": 7727,
      "ĠìĿĮìĭĿìłĲ": 7728,
      "ëĮĢìĿĳ": 7729,
      "íı¬ë¨¼ìĬ¤": 7730,
      "Ġíķ¸ëĵľ": 7731,
      "Ġê³µì§ģìŀĲ": 7732,
      "ê¸īìĹ¬": 7733,
      "Ġì±ħìŀĦì§Ģ": 7734,
      "Ġì¢ĭìķĦíķĺ": 7735,
      "ìļ°ìĪĺ": 7736,
      "Ġëª¨ëŀĺ": 7737,
      "Ġì§Ģì£¼": 7738,
      "ĠìĬ¤íģ¬ë¦°": 7739,
      "ĠìĹ´ë¦´": 7740,
      "íħĮìĿ´ëĦĪ": 7741,
      "Ġ72": 7742,
      "ay": 7743,
      "Ġë³´ìĹ¬ì¤Ģ": 7744,
      "ĠìĹħê·¸ëłĪìĿ´ëĵľ": 7745,
      "Ġëħ¼ìŁģ": 7746,
      "ìħĶëĦĲ": 7747,
      "ì¡°ë¦¬": 7748,
      "ë°Į": 7749,
      "ìĽĲìłĦ": 7750,
      "ìı": 7751,
      "Ġë§ĪìĬ¤íĦ°": 7752,
      "ĠíļĮëıĻ": 7753,
      "Ġìļ°ì¦Ī": 7754,
      "Ġì¹ĺìĨŁ": 7755,
      "Ġê¹ĢìĪĺ": 7756,
      "ë³´ì¡°": 7757,
      "íıīëĵ±": 7758,
      "Ġì¡°ë¦¬": 7759,
      "Ġìŀ¬íĻľ": 7760,
      "Ġëĵ¤ìĹ¬ëĭ¤ë³´": 7761,
      "ĠìŀĦë¬´": 7762,
      "ìłĦìĦł": 7763,
      "ë¡ľìĽĢ": 7764,
      "Ġìĭ¤íļ¨": 7765,
      "ĠìĹ¬ìĦ¯": 7766,
      "ĠìķĦëĭĻëĭĪê¹Į": 7767,
      "ĠìłĦêµĲ": 7768,
      "ìĤ¬ë²ķ": 7769,
      "Ġë°ĶìľĦ": 7770,
      "ìĬ¤ì¿¨": 7771,
      "ĠEU": 7772,
      "ĠíĥĢìŀĦ": 7773,
      "Ġíİ¸ìŀħ": 7774,
      "Ġê°Ģë§¹ìłĲ": 7775,
      "Ġê¸°ëıĦ": 7776,
      "ìľłìĨĮ": 7777,
      "Ġíģ¬ëĭ¤": 7778,
      "PS": 7779,
      "Ġì½ĶíĬ¸": 7780,
      "íĿĳ": 7781,
      "ìłķê¸°": 7782,
      "ĠíĮ¨ëŁ¬": 7783,
      "Ġìĸ´ëĸ¨": 7784,
      "ĠëıĻíĻĶ": 7785,
      "íĤ´": 7786,
      "ë©´ìĦľëıĦ": 7787,
      "Ġìŀ¬ì§ģ": 7788,
      "Ġm": 7789,
      "ë°°ìĥģ": 7790,
      "Ġê²°íĺ¼ìĭĿ": 7791,
      "ĠëĦĺìĸ´ìĦ°": 7792,
      "Ġêµ¬ìĦĿ": 7793,
      "Ġëĭ¹ì²¨": 7794,
      "Ġë¶ĻìĹ¬": 7795,
      "ĠìľĦìķĪë¶Ģ": 7796,
      "ëĨįê°Ģ": 7797,
      "ĠëĤ´ìĻ¸": 7798,
      "ìºĲíĶ¼": 7799,
      "Ġìĭ¤ë¦¬": 7800,
      "ë¶ģëıĦ": 7801,
      "Ġë¬´íķľ": 7802,
      "2017": 7803,
      "Ġìłľíľ´": 7804,
      "ëĿ¼ê¸°": 7805,
      "Ġêµ¬ìĹŃ": 7806,
      "ĠíķĺìĸĢ": 7807,
      "Ġì¡°ìļ©íŀĪ": 7808,
      "Ġêµ¬ë©į": 7809,
      "ĠìķĪíĥĢê¹Ŀ": 7810,
      "ìľĻ": 7811,
      "Â²": 7812,
      "OS": 7813,
      "ìµľê³ł": 7814,
      "89": 7815,
      "Ġè": 7816,
      "Ġê°Ģì¤ĳ": 7817,
      "Ġë¹ĦíĥĢë¯¼": 7818,
      "Ġíĥľìĸ´ëĤľ": 7819,
      "ĠëĿł": 7820,
      "ìŀĳíĴĪ": 7821,
      "ĠìĿ´ì£¼": 7822,
      "ìĸ´ë¨¸ëĭĪ": 7823,
      "Ġê°Ģë¥´ì¹ĺ": 7824,
      "ë»Ĳ": 7825,
      "ĠìľĪ": 7826,
      "ĠíķŃë§Į": 7827,
      "ĠìĬ¤íĭ°": 7828,
      "Ġê´ĳìĸĳ": 7829,
      "ĠìĹ´ì°¨": 7830,
      "íķĺë£¨": 7831,
      "ĠìłĦì§ģ": 7832,
      "ĠìĤ´ìķĦëĤ¨": 7833,
      "ĠìĪĺìĭľë¡ľ": 7834,
      "ĠëŀŃ": 7835,
      "Ġìĺµ": 7836,
      "ĠìĬ¤ìľĦìĬ¤": 7837,
      "Ġëĭ´ëĭ¹ìŀĲ": 7838,
      "ĠìŀĲìĺģìĹħ": 7839,
      "ëĳ¬": 7840,
      "ì²ľêµ°": 7841,
      "ìĥĿë¬¼": 7842,
      "ëĤĺëĪĶ": 7843,
      "Ġë¬´ìĿ¸": 7844,
      "ĠëĤłì¹´": 7845,
      "ê¸ĪìĨį": 7846,
      "2012": 7847,
      "ìĹħì¢ħ": 7848,
      "ĠìķĦìĿ´ëıĮ": 7849,
      "ìĦľì¹ĺ": 7850,
      "ĠìĦ¸íı¬": 7851,
      "ĠìĿ¸íĦ´": 7852,
      "ĠëĳĺëŁ¬ë³´": 7853,
      "Ġê³łìŀ¥": 7854,
      "ĠìĦ±ìĭ¤": 7855,
      "Ġë®¤ì§ģ": 7856,
      "MA": 7857,
      "Ġë§Īë¥´": 7858,
      "Ġê¸°ìĺ¨": 7859,
      "Ġìĭľê°Ģ": 7860,
      "ĠìĿ¸íħĮë¦¬ìĸ´": 7861,
      "ê³µëıĻì²´": 7862,
      "ëĦĪìĬ¤": 7863,
      "ì§Ģíķĺ": 7864,
      "ĠíĦ°ìł¸": 7865,
      "ĠëıħëıĦ": 7866,
      "Ġ130": 7867,
      "ĠìľłìĤ°": 7868,
      "ĠìĿ´ìĬ¤": 7869,
      "Ġë§ŀì¶ĺ": 7870,
      "ë°©ìĹŃ": 7871,
      "ëĳĲê¸°": 7872,
      "ĠìĿĺë£Įì§Ħ": 7873,
      "ĠíĶ¼ìĿĺìŀĲ": 7874,
      "ì¶ľìĤ°": 7875,
      "ĠëĪĦë¥´": 7876,
      "ht": 7877,
      "ë¡łê°Ģ": 7878,
      "ĠìķŀìĦ¸ìĽĮ": 7879,
      "ĠìĦ±ìŀ¥ìĦ¸": 7880,
      "ĠíĦ°íĤ¤": 7881,
      "ë¹ĦìĦľê´Ģ": 7882,
      "ĠìķĪìĦ±": 7883,
      "Ġì¾Įìłģ": 7884,
      "EC": 7885,
      "ìłĦë¶Ģ": 7886,
      "Ġì´ĿíļĮ": 7887,
      "ĠíĻĶíķ©": 7888,
      "ìºłíį¼ìĬ¤": 7889,
      "Ġë³´íĸī": 7890,
      "Ġì°¨ìŀ¥": 7891,
      "Ġì§Ģíĺľ": 7892,
      "Ġìĭłê¸°": 7893,
      "Ġìĸ¼ìĿĮ": 7894,
      "ĠëĨĵìĹ¬": 7895,
      "ĠíĨłë¡ľ": 7896,
      "ĠìĿ¸ë¯¼": 7897,
      "Ġì§Ĳìŀĳ": 7898,
      "ĠìłľìŀĲ": 7899,
      "Ġë§īíĮĲ": 7900,
      "ĠëĳĶíĻĶ": 7901,
      "Ġì¡°ìľ¨": 7902,
      "ĠëĤ´ëĭ¤ë´¤": 7903,
      "Ġê°ķëł¬": 7904,
      "ĠëĨįìŀ¥": 7905,
      "ëĤĺê°Ķ": 7906,
      "íĥĿìĭľ": 7907,
      "ot": 7908,
      "ĠíĭĢë¦¼": 7909,
      "ĠìłĦì§Ģ": 7910,
      "ê²¨ìļ¸": 7911,
      "ìļķìŀ¥": 7912,
      "ìłłê°Ģ": 7913,
      "Ġë°ķìĽĲ": 7914,
      "ĠíĮĮíĭ°": 7915,
      "ĠíĥģìĽĶ": 7916,
      "Ġêµµ": 7917,
      "Ġìĸ´ìĦľ": 7918,
      "ï¼į": 7919,
      "Ġê³¼ìĭľ": 7920,
      "ĠìĨŁ": 7921,
      "Ġê¸Īë°©": 7922,
      "ĠìĿ¼íĸī": 7923,
      "ëıĻìĥĿ": 7924,
      "85": 7925,
      "Ġì²Ńìŀ¥": 7926,
      "ìĦĿìľł": 7927,
      "ĠëªħìĿĺ": 7928,
      "Ġì±ħìłķ": 7929,
      "ĠíķĺìĿ´ë¸Įë¦¬ëĵľ": 7930,
      "ĠìĪĺì°¨ë¡Ģ": 7931,
      "æķ": 7932,
      "ìĪĺëĭ¨": 7933,
      "ĠìıŁìķĦì§Ģ": 7934,
      "ìĬ¤íĮħ": 7935,
      "Ġìľ¡êµ°": 7936,
      "Ġìŀ¬ë°Į": 7937,
      "ĠìĤ½": 7938,
      "Ġìĺ¬ë°Ķë¥¸": 7939,
      "ĠìĪľìĦľ": 7940,
      "ĠëıĻìķĦë¦¬": 7941,
      "Ġì°½ë¬¸": 7942,
      "ì§ĢìĭĿ": 7943,
      "ãİ¡)": 7944,
      "íģ´ëŀĺ": 7945,
      "Ġëĭ¤ë£¬": 7946,
      "ĠêµĲìĽĲ": 7947,
      "and": 7948,
      "ëĤ´ìļ©": 7949,
      "Ġê¹ĮëĭŃ": 7950,
      "71": 7951,
      "ĠëıĦëª¨": 7952,
      "Ġìĥīìĥģ": 7953,
      "ĠíĨłìļĶìĿ¼": 7954,
      "Ġìłĳê·¼ìĦ±": 7955,
      "ê²½ìŁģëł¥": 7956,
      "Ġìĵ°ìĿ´": 7957,
      "ĠíĹ¤ìĸ´": 7958,
      "Ġê±´ìłĦ": 7959,
      "95": 7960,
      "ĠìłĦê²©": 7961,
      "ê±´ë¹Ħ": 7962,
      "ĠìĬ¤ìĽ¨": 7963,
      "Ġì²´ê°Ĳ": 7964,
      "ĠìĿ¼ìłľíŀĪ": 7965,
      "ĠëĤĺìķĦ": 7966,
      "Ġê³łìĸĳìĿ´": 7967,
      "ĠìķĦíĬ¸": 7968,
      "Ġë²ĶìĿ¸": 7969,
      "Ġë§¤ì§Ħ": 7970,
      "ìłķê¶Į": 7971,
      "Ġë§Īíģ¬": 7972,
      "ĠìľĦíķĺ": 7973,
      "ìķ±": 7974,
      "Ġê³Ħì¸µ": 7975,
      "Ġì§Ģê²½": 7976,
      "Ġì±ĦìĨĮ": 7977,
      "Ġë°ľê¸¸": 7978,
      "ĠëĿ¼ìĿ´ë¸Į": 7979,
      "Ġëª©ê²©": 7980,
      "Ġë©Ģíĭ°": 7981,
      "ìĽĥìĿĮ": 7982,
      "Ġë¶Ģë¦¬": 7983,
      "ĠìĤ¬ì°°": 7984,
      "ĠíĴįìĦ±": 7985,
      "Ġê²½ì°°ê´Ģ": 7986,
      "ëĭ¨ìľĦ": 7987,
      "ĠìĪĺëħĦ": 7988,
      "Ġê°¤ëŁ¬ë¦¬": 7989,
      "Ġë¬¸ìŀ¥": 7990,
      "ĠìĭľëĤĺë¦¬ìĺ¤": 7991,
      "ìĬ¤ëŁ¬ìĽĮ": 7992,
      "ad": 7993,
      "ëĬĲëĥĲëĬĶ": 7994,
      "ìĿ¼ì§Ģ": 7995,
      "ê³łìĨįëıĦë¡ľ": 7996,
      "ĠìĥĪëģ¼": 7997,
      "ĠëĦĺìĸ´ìĦľ": 7998,
      "ëĵľë¡ľ": 7999,
      "ĠìĹ¼ëĳĲ": 8000,
      "ĠíĸĪìľ¼ëĤĺ": 8001,
      "ĠíĨµíĸī": 8002,
      "ĠëĤ´ë³´": 8003,
      "ĠìĦ±ìĤ¬": 8004,
      "ĠëĤ¨ê¸´": 8005,
      "Ġìĸĳìª½": 8006,
      "ĠìĦ¸ëł¨": 8007,
      "ĠìĹĳìĬ¤": 8008,
      "Ġì°¸ìĦĿìŀĲ": 8009,
      "ĠìĹ°ìķł": 8010,
      "ĠëıĻíĸī": 8011,
      "Ġë°ķìĺģ": 8012,
      "Ġì§ĢëĤ¬": 8013,
      "ë§Īì¼ĢíĮħ": 8014,
      "ĠìĪĺíĻķ": 8015,
      "Ġê¸īê²©íŀĪ": 8016,
      "Ġë¶ĻìĿ´": 8017,
      "Ġìĺ¤íĶĦëĿ¼ìĿ¸": 8018,
      "ìļ°ìĬ¹": 8019,
      "Ġì§ĢëĭĪ": 8020,
      "ìĿ´ëŀĳ": 8021,
      "Ġíĸīíĥľ": 8022,
      "Ġìłģëĭ¹": 8023,
      "Ġë§ĪìĿ´ëĦĪ": 8024,
      "oT": 8025,
      "ìĹ°ìĪĺ": 8026,
      "Ġê¸īëĿ½": 8027,
      "ĠìĽĲê²©": 8028,
      "ĠëıĻìĦľ": 8029,
      "Ġìĺ¤íĨł": 8030,
      "ĠìķĪëĭ¤": 8031,
      "ìĨĮë¹ĦìŀĲ": 8032,
      "Ġê¹ĥ": 8033,
      "Ġì¶Ķê²©": 8034,
      "Ġëľ¨ê²ģ": 8035,
      "ë¬¼ê°Ģ": 8036,
      "Ġìľ¤ìĦĿ": 8037,
      "ë³´ìķĪ": 8038,
      "ê°ľìłķ": 8039,
      "ëłĪìĿ´ìħĺ": 8040,
      "Ġíħį": 8041,
      "Ġíı¬íĬ¸": 8042,
      "ëŁ¬ìĬ¤íĦ°": 8043,
      "ì£¼ìĸ¼": 8044,
      "ĠëĶľ": 8045,
      "ĠëĦĮ": 8046,
      "Ġíĺķíİ¸": 8047,
      "ĠìĿ´ëħĲ": 8048,
      "Ġìºĺ": 8049,
      "ĠíĻķë¥ł": 8050,
      "ĠìĹ°ìĥģ": 8051,
      "ê¶Įëł¥": 8052,
      "Ġëªĩëªĩ": 8053,
      "ìĦ¼íĭ°ë¸Į": 8054,
      "Ġì²ŃìĽĲ": 8055,
      "ĠìĹ´ìķħ": 8056,
      "Ġìĭłìŀ¬": 8057,
      "ĠìĺģìĽħ": 8058,
      "ìľĦìķĪ": 8059,
      "ĠíķľêµŃìĿĢíĸī": 8060,
      "Ġìĭľì¼ľ": 8061,
      "íīģ": 8062,
      "ìĻ¸êµĲ": 8063,
      "Ġë¶ĢëĵľëŁ¬ìļ´": 8064,
      "Ġë¬´ëł¥": 8065,
      "Ġíģ´ë¦°": 8066,
      "Ġëĥīìŀ¥ê³ł": 8067,
      "ê²½ê¸°ìŀ¥": 8068,
      "ĠìĿ´ë¤ĺ": 8069,
      "400": 8070,
      "2014": 8071,
      "Ġ\"âĢ¦âĢ¦": 8072,
      "ĠíĶĦë¡ľëª¨ìħĺ": 8073,
      "Ġíİ¼ì³Ĳì§Ħëĭ¤": 8074,
      "Ġë¦¬ìĸ¼": 8075,
      "Ġ1998": 8076,
      "ĠíħĶëłĪ": 8077,
      "ê°ķíĻĶ": 8078,
      "Ġìĸ½": 8079,
      "íİĺìħľ": 8080,
      "ì¼Ī": 8081,
      "Ġê¹Ģë³ĳ": 8082,
      "ĠìĥģìĭĿ": 8083,
      "800": 8084,
      "ì²´ìĿ¸": 8085,
      "Ġê±´ëĦ": 8086,
      "ĠëıħìłĲ": 8087,
      "ĠìłķìĪĺ": 8088,
      "Ġíį¼íı¬ë¨¼ìĬ¤": 8089,
      "Ġì¦Ĳê²¨": 8090,
      "ĠìķĦë¦Ħëĭµ": 8091,
      "LS": 8092,
      "Ġìļ´ìĨ¡": 8093,
      "ĠìĪĺìĥī": 8094,
      "Ġìĭ±ê¸Ģ": 8095,
      "ĠìĤ¬ëª¨": 8096,
      "ê°ĲëıħìĽĲ": 8097,
      "ĠìĹ°ëĤ´": 8098,
      "Ġ62": 8099,
      "ê²¨ì§Ħ": 8100,
      "Ġê¸īê°Ĳ": 8101,
      "ìĤ¬ê¸°": 8102,
      "ĠìŀĲì¡´ìĭ¬": 8103,
      "Ġìļķë§Ŀ": 8104,
      "Ġê³łìĿ¸": 8105,
      "Ġë¹ĽëĤĺ": 8106,
      "ë§¤ìĪĺ": 8107,
      "ëľ°": 8108,
      "Ġêµ°ë¯¼": 8109,
      "íĥĢìĿ´": 8110,
      "Ġë¹Ħê²°": 8111,
      "ĠëĨįìĤ¬": 8112,
      "Ġëª¨ìĭľ": 8113,
      "Ġê³µë°±": 8114,
      "Ġíĺ¸ê¸°": 8115,
      "Ġì±ħìĥģ": 8116,
      "Ġë³´ê°ķ": 8117,
      "Ġì§ĢìĹŃë¯¼": 8118,
      "Ġê²½ìľĦ": 8119,
      "Ġë²¤ì¹ĺ": 8120,
      "ĠíķĻìĹħ": 8121,
      "ï¼ħ": 8122,
      "ìĹ¬ëĮĢ": 8123,
      "Ġíĥľê·¹": 8124,
      "2010": 8125,
      "ëĵłëĭ¤": 8126,
      "Ġê¸°êµ¬": 8127,
      "Ġëĭ¨ìĽĲ": 8128,
      "Ġëĭ¤ë¥¼": 8129,
      "ĠíĻĶìĥģ": 8130,
      "Ġê°Ģì§ľ": 8131,
      "ìĦłìĥĿ": 8132,
      "Ġë²Ħíĭ°": 8133,
      "ëıĦë¯¼": 8134,
      "ŁìĪĺ": 8135,
      "ĠíĥĿë°°": 8136,
      "Ġì£¼ê³ł": 8137,
      "ë¬¸ìŀ¬ìĿ¸": 8138,
      "Ġì¦Ŀì§Ħ": 8139,
      "ĠFA": 8140,
      "Ġìĺ¨ìĭ¤": 8141,
      "ĠìĤ¬ê°ģ": 8142,
      "ë¹Įë¦¬": 8143,
      "Ġìĺ¨ê°ĸ": 8144,
      "Ġê°ĲìĤ¬ìĽĲ": 8145,
      "Ġê±´ì§Ģ": 8146,
      "ĠëĨįë¦¼": 8147,
      "Ġëª¨ìĿ¸": 8148,
      "Ġê±°ëĳĶ": 8149,
      "Ġíķ«": 8150,
      "ìĥ·": 8151,
      "ĠëĮĢë¥Ļ": 8152,
      "Ġëĵ±ì§Ģ": 8153,
      "Ġìĭľê³¨": 8154,
      "2013": 8155,
      "ĠìķĦê°Ģ": 8156,
      "ĠìĦľìĦľ": 8157,
      "ĠìŀĲë¶Ģ": 8158,
      "Ġìĺ¨ëª¸": 8159,
      "ĳ¤": 8160,
      "Ġêµ¬íĺ¸": 8161,
      "Ġíķ´ì²´": 8162,
      "Ġë°¸": 8163,
      "Ġìĭľì§ĳ": 8164,
      "íĭ°ìĬ¤íĬ¸": 8165,
      "ìĹ°ë£Į": 8166,
      "Ġë¡¤": 8167,
      "Ġê³łë¥´": 8168,
      "éģ": 8169,
      "íĬ¸ëŀĻ": 8170,
      "ĠìĬ¤íĤ¤": 8171,
      "ì£¼ëıĦ": 8172,
      "ĠëĳĲëł¤ìĽĢ": 8173,
      "ĠìľĦìĥĿ": 8174,
      "ĠëįĶìļ±ìĿ´": 8175,
      "ëĲľëĭ¤ë©´": 8176,
      "ëĳ¥ìĿ´": 8177,
      "ëĦĵ": 8178,
      "åį": 8179,
      "Ġë©Ķë¥´ìĬ¤": 8180,
      "ĠëĤ¨ìª½": 8181,
      "Ġ6000": 8182,
      "Ġìľłë£Į": 8183,
      "ëĶĶìĬ¤íĶĮëłĪìĿ´": 8184,
      "Ġë§¤ì¹ĺ": 8185,
      "ĠìĿ´ë³ĳ": 8186,
      "Ġ1999": 8187,
      "ĠìĹ´ëł¤": 8188,
      "Ġê³łìĭľ": 8189,
      "êµĲìľ¡ê°Ĳ": 8190,
      "ëĵľëŁ½": 8191,
      "ĠìĽĲì£¼": 8192,
      "íļĮìĽĲ": 8193,
      "ĠëıĻë§¹": 8194,
      "Ġëĸłìĺ¬ë¦¬": 8195,
      "ì§Ģìĥģ": 8196,
      "ë°ĶìĿ´íĬ¸": 8197,
      "Ġì²ŃìĤ°": 8198,
      "ìºĶ": 8199,
      "Ġì£¼ê³łë°Ľ": 8200,
      "Ġêµ¬ê²½": 8201,
      "Ġìļ©ìĦľ": 8202,
      "ĠìĥĿìķł": 8203,
      "Ġë°ķëŀĮíļĮ": 8204,
      "Ġë¡ľë§¨": 8205,
      "íĥĢìłĲ": 8206,
      "ëł¥ìĤ¬": 8207,
      "ĠìķłëĭĪ": 8208,
      "Ġê¸´ë°Ģ": 8209,
      "ĠëĿ¼ìĿ´íĶĦ": 8210,
      "Ġì¦Ĳê±°ìļ´": 8211,
      "ĠìłĦìĦ¤": 8212,
      "íĿł": 8213,
      "ĠìĬ¤íĶĦ": 8214,
      "Ġê¼¬ì§ĳ": 8215,
      "Ġì»¤ì§Ī": 8216,
      "Ġëª¨ê¸Ī": 8217,
      "ĠìĪĺíĺľ": 8218,
      "ĠíĮĮì£¼": 8219,
      "ëĵľëł¸": 8220,
      "ëĭ´ë³´": 8221,
      "ìĤ°íĻĶ": 8222,
      "87": 8223,
      "ì§Ģë¡ľ": 8224,
      "Ġê¸ĪíĴĪ": 8225,
      "ìłĢê¸°": 8226,
      "Ġëĭ¤íĸīíŀĪ": 8227,
      "ê½": 8228,
      "Ġë§Īìķ½": 8229,
      "æ°": 8230,
      "Ġíļ¡ëł¹": 8231,
      "ĠìĹ°ìĿ´": 8232,
      "ĠìĿ´ëŁ´": 8233,
      "Ġê´´ë¡Ń": 8234,
      "Ġìŀ¥ìĦ±": 8235,
      "íĮĿ": 8236,
      "Ġìļ°ìľł": 8237,
      "ĠíıĲê¸°ë¬¼": 8238,
      "ĠìłĦìĭł": 8239,
      "ĠíĮĿ": 8240,
      "ê²°ìłľ": 8241,
      "Ġ1997": 8242,
      "IST": 8243,
      "Ġíķłê¹Į": 8244,
      "Ġë¬´ìĥģê¸īìĭĿ": 8245,
      "Ġíģ¬ë¦¬ìĬ¤ë§ĪìĬ¤": 8246,
      "ìłľìķ½": 8247,
      "ë¦¬ì¡°íĬ¸": 8248,
      "ĠíĻĺìĥģ": 8249,
      "ĠìĦ¸ë¬´": 8250,
      "ê³¼ê±°": 8251,
      "ĠíĹĺ": 8252,
      "íĥľë£Į": 8253,
      "Ġìŀ¬íĺĦ": 8254,
      "íĻĶíıĲ": 8255,
      "ĠãĢĬ": 8256,
      "Ġëĭ¬ëŀĲ": 8257,
      "ĠìĤ´íĶ¼": 8258,
      "ìļ°ì£¼": 8259,
      "Ġì¤Ħê¸°": 8260,
      "Ġê³łì§ĳ": 8261,
      "íĬ¹êµ¬": 8262,
      "Ġê°Ĳëĭ¹": 8263,
      "ĠëĪĦëĤĺ": 8264,
      "ĠâĢĻ": 8265,
      "Ġê°ĲìĹ¼ë³ĳ": 8266,
      "ëĬ¬": 8267,
      "Ġìĸ´ë¦¬": 8268,
      "ĠìľłìĬ¹": 8269,
      "ĠìĭłíķľìĿĢíĸī": 8270,
      "Ġëįĺìł¸": 8271,
      "ĠíĬ¹ë³Ħë²ķ": 8272,
      "ĠìĹ´íĴį": 8273,
      "Ġë°©ë¬¸ê°Ŀ": 8274,
      "Ġìĭľíĸīëł¹": 8275,
      "ĠìĪĺìĬµ": 8276,
      "ĠêµŃìĦ¸ì²Ń": 8277,
      "ĠìĤ°ìłķ": 8278,
      "Ġìĸĳë³´": 8279,
      "Ġë°Ģì§ĳ": 8280,
      "ECD": 8281,
      "ìłķìĿĺ": 8282,
      "ëĬĲë¦¬": 8283,
      "ì²ľì§Ģ": 8284,
      "ãĢĭ": 8285,
      "ëĶĶì§ĢíĦ¸": 8286,
      "Ġë¶ĢëĵľëŁ½": 8287,
      "Ġìļ©ëıĦ": 8288,
      "Ġê±´ëĦ¤": 8289,
      "ë°´ëĵľ": 8290,
      "ĠìķĮëł¸": 8291,
      "ĠíķŃê³µìĤ¬": 8292,
      "ĠìĽĲê³ł": 8293,
      "ĠMC": 8294,
      "ĠìĿ´ë£¨ìĸ´ì§Ģ": 8295,
      "Ġë¹Ħìĭ¸": 8296,
      "ĠìĨ¡íĮĮ": 8297,
      "ìĦ¸ì¢ħ": 8298,
      "Ġë¯¸íĿ¡": 8299,
      "ĠìĬ¬íĶĶ": 8300,
      "ìĿ¸ê°Ħ": 8301,
      "Ġë²ķì¡°": 8302,
      "Ġë¨¸ë¦¿": 8303,
      "Ġë¨¼ì§Ģ": 8304,
      "íĳ": 8305,
      "ĠìĦ¸ìłľ": 8306,
      "Ġì§Ħíĸīíķł": 8307,
      "TS": 8308,
      "ĠëĦ¤ëįľëŀĢëĵľ": 8309,
      "ĠìŀĲìĦ¸íŀĪ": 8310,
      "ìĻ¸ìĦł": 8311,
      "Ġì¶ľëıĻ": 8312,
      "íĪ¬ìŀĲìŀĲ": 8313,
      "Ġê³łì¡°": 8314,
      "ĠíĶ¼ìķĦ": 8315,
      "ĠìĬ¤íĥł": 8316,
      "ê°ķìĽĲ": 8317,
      "MS": 8318,
      "ĠíĮĮê²©": 8319,
      "Ġíĳľë©´": 8320,
      "Ġìķ½ë¬¼": 8321,
      "ê³µì²ľ": 8322,
      "ĠìĿ´ìĬ¤ëĿ¼ìĹĺ": 8323,
      "Ġê³±": 8324,
      "Ġìłķíķľ": 8325,
      "ì°½ìĽĲ": 8326,
      "ìĹŃëŁī": 8327,
      "Ġë³µêµ¬": 8328,
      "ĠëĮĢì¤ĳêµĲíĨµ": 8329,
      "ĠìļĶìĸĳ": 8330,
      "Ġìĭľëĭ¬ë¦¬": 8331,
      "ìĥģìĬ¹": 8332,
      "Ġë°°íı¬": 8333,
      "Ġëľ¬": 8334,
      "ĠëĤ´ëħĦëıĦ": 8335,
      "Ġë©´ìĦ¸ìłĲ": 8336,
      "Ġìłĳì¢ħ": 8337,
      "Ġë³´ëĤ¼": 8338,
      "ì§ķê¸Ī": 8339,
      "ĠëĤ´ê±¸": 8340,
      "ĠìĤ°íķĻ": 8341,
      "Ġìĥģìłķ": 8342,
      "ĠìĿ´ëª©": 8343,
      "ĠìĿ´ìĬ¬": 8344,
      "ĠíĶĦë¦°": 8345,
      "Ġëı¼ìĦľ": 8346,
      "Ġìľłê°Ĳ": 8347,
      "ĠíĥĢìľ¨": 8348,
      "ì°¨ìĽĲ": 8349,
      "Ġìŀ¡ìķĦ": 8350,
      "Ġë°ķìĦ±": 8351,
      "97": 8352,
      "ĠíĺĦì§ģ": 8353,
      "Ġë§¤ëıĦ": 8354,
      "Ġê°ĢëĿ¼": 8355,
      "Ġê¹ĶëģĶ": 8356,
      "ĠìĪ¨ì§Ħ": 8357,
      "Ġìµľê°ķ": 8358,
      "ìļ´ìĦľ": 8359,
      "Ġìķŀëĭ¹": 8360,
      "ë§µ": 8361,
      "cm": 8362,
      "ĠíĨµìĿ¼ë¶Ģ": 8363,
      "ĠëıĻíĸ¥": 8364,
      "ĠìĭłëıĻ": 8365,
      "Ġíĺ¸íıī": 8366,
      "Ġê°ĲìĪĺ": 8367,
      "ëĥĲë©´": 8368,
      "ëĮĢìŀ¥": 8369,
      "Ġëĭ¤ìĿ´ìĸ´íĬ¸": 8370,
      "Ġì¤ĳê¸°": 8371,
      "ìŀĲê²©": 8372,
      "Ġìķ¡ìħĺ": 8373,
      "Ġìĭ¤ìļ©": 8374,
      "ĠìĿ´ë¥¼": 8375,
      "Ġë¬´ìŀ¥": 8376,
      "ĠíĥĪëĭ¹": 8377,
      "ĠíĿ©": 8378,
      "Ġì´Īëĵ±íķĻìĥĿ": 8379,
      "Ġë½Ĳ": 8380,
      "ìĭľë¦½": 8381,
      "ĠìłĢíķĺ": 8382,
      "ë¯¼ì¡±": 8383,
      "ĠëĤ¡": 8384,
      "Ġê²½ì°°ì²Ń": 8385,
      "Ġê³µê°ĲëĮĢ": 8386,
      "ĠêµĲìĦŃ": 8387,
      "Ġê½Ĥ": 8388,
      "Ġê¸°ê°ģ": 8389,
      "Ġë°Ģìĸĳ": 8390,
      "ĠìĹ°ëıĻ": 8391,
      "ĠìĽĶìĦ¸": 8392,
      "íĺĦìĥģ": 8393,
      "ë©Ģ": 8394,
      "Ġì¤ĳê³Ħ": 8395,
      "ĠíĽĦíļĮ": 8396,
      "Ġ110": 8397,
      "Ġë°±ìĦ±": 8398,
      "ĠëĪĦë¦´": 8399,
      "ëĿ¼íģ¬": 8400,
      "íķĺíķĺ": 8401,
      "Ġê¹Ģì§Ģ": 8402,
      "Ġìłķìľł": 8403,
      "ĠíĦ°ì§Ģ": 8404,
      "Ġê¶ģê¸Īì¦Ŀ": 8405,
      "Ġìŀłìłķ": 8406,
      "Ġë³´ë³µ": 8407,
      "ëĿł": 8408,
      "ëŀľì°¨": 8409,
      "ì§ĳíļĮ": 8410,
      "ĠìĿ¸ìĦ¼íĭ°ë¸Į": 8411,
      "ëıĦìĸ´": 8412,
      "ĠëĳĲëĵľëŁ¬": 8413,
      "Ġëª¨ìĿ´": 8414,
      "Ġê°Ģíķĺ": 8415,
      "Ġê²¬ìĿ¸": 8416,
      "ë¶ĢìĿ¸": 8417,
      "Ġìľłìļ©": 8418,
      "ĠíĮ©": 8419,
      "ĠìĿ´ëĮĢ": 8420,
      "Ġë©ĶìĿ¸": 8421,
      "ë°±ì§Ī": 8422,
      "íĥĢìĿ´ìĸ´": 8423,
      "Ġíķĺì²ľ": 8424,
      "ĠíĥĢìĿ´ìĸ´": 8425,
      "ĠëĤ´ìĦ¸ìļ°": 8426,
      "GB": 8427,
      "ëŀľì°¨ìĿ´ì¦Ī": 8428,
      "ĠëģĪëĭ¤": 8429,
      "ì§Ħë£Į": 8430,
      "Ġë¶ģì¸¡": 8431,
      "ë¬¼ëŁī": 8432,
      "ìĨĮìĹ°": 8433,
      "ĠíĿł": 8434,
      "TO": 8435,
      "Ġì²Ńì·¨": 8436,
      "ë§ĪìĿ´": 8437,
      "ë¬¸íĻĶìŀ¬": 8438,
      "Ġìļ©ìĸ´": 8439,
      "ìħĶì¸ł": 8440,
      "ëĭ¤ë©´ìĦľ": 8441,
      "ĠëıĦìĦľ": 8442,
      "Ġì°¢": 8443,
      "Ġ77": 8444,
      "Ġìķµ": 8445,
      "ëıħêµĲ": 8446,
      "ê´ĳë¶Ģ": 8447,
      "Ġì¦Ŀê°ĢìĦ¸": 8448,
      "ĠBMW": 8449,
      "ĠIB": 8450,
      "ĠKTX": 8451,
      "Ġê¸°ì¦Ŀ": 8452,
      "PA": 8453,
      "Ġì°¾ìķĦë³´": 8454,
      "Ġë³´íİ¸": 8455,
      "Ġëĭ¹ëĩ¨": 8456,
      "ĠìĦľìĸĳ": 8457,
      "ĠSUV": 8458,
      "Ġë§ĪëĶĶ": 8459,
      "ê¼½": 8460,
      "Ġìłľë³´": 8461,
      "ĠëĤĺìģĺ": 8462,
      "Ġë¹¨ê°Ħ": 8463,
      "íĬ¸ë¡¤": 8464,
      "ĠëıĦëĭ¬": 8465,
      "Ġê°ķì¢Į": 8466,
      "ĠìĥģíĴĪê¶Į": 8467,
      "ëĵľë¦´": 8468,
      "Ġì¦ĿìĦ¸": 8469,
      "ĠìµľìĪľ": 8470,
      "Ġì²ŃìĤ¬": 8471,
      "ìĺµëĭĪëĭ¤": 8472,
      "ìŁģìĿ´": 8473,
      "Ġìķ¼ìĥĿ": 8474,
      "ì²ĺìĿĮ": 8475,
      "Ġë´ħëĭĪëĭ¤": 8476,
      "DA": 8477,
      "ĠìĨĮíıŃ": 8478,
      "Ġê³µì¡°": 8479,
      "Âł": 8480,
      "ëħ¸ëıĻìŀĲ": 8481,
      "\"âĢ¦": 8482,
      "Ġê·¸ë¦¼ìŀĲ": 8483,
      "Ġof": 8484,
      "ĠëĮĢë²ķê´Ģ": 8485,
      "Ġê°Ģë²¼ìļ´": 8486,
      "ëı¼ì§Ģ": 8487,
      "ìŀĲìŀ¬": 8488,
      "ĠëĪĦìĽĮ": 8489,
      "Ġë²Ħë¦°": 8490,
      "Ġê´Ģíķł": 8491,
      "Ġì¶ľìłľ": 8492,
      "íĨµìłľ": 8493,
      "Ġëĭ¹ê¸°": 8494,
      "Ġê¾Ģ": 8495,
      "ëħ¸íĬ¸": 8496,
      "Ġë¦°": 8497,
      "ĠìĿ¸ê±´ë¹Ħ": 8498,
      "ĠíķľëĳĲ": 8499,
      "Ġë¯¸ë¤Ħ": 8500,
      "Ġë§¡ê¸°": 8501,
      "Ġìĭ¹": 8502,
      "Ġê³¼íĥľë£Į": 8503,
      "ëĭ¨ëĭ¤": 8504,
      "Ġv": 8505,
      "ìĥµ": 8506,
      "Ġìľłê°Ģì¡±": 8507,
      "ëħ¸ëıĻë¶Ģ": 8508,
      "ëª¨ì§ĳ": 8509,
      "ĠìľĦìĦ±": 8510,
      "Ġìĺģíĺ¼": 8511,
      "Ġì¡°ì§Ģ": 8512,
      "ë°ĺëĮĢ": 8513,
      "Ġê¸´ìŀ¥ê°Ĳ": 8514,
      "Ġê·ľì¹Ļ": 8515,
      "Ġê°ľê·¸": 8516,
      "Ġb": 8517,
      "Ġìĺ¤íİĺëĿ¼": 8518,
      "Ġìļ°ëĮĢ": 8519,
      "ì§Ģíĳľ": 8520,
      "Ġë¶ĢìĬ¤": 8521,
      "Ġê±´ì¶ķë¬¼": 8522,
      "ë¹Ħë¦¬": 8523,
      "æŃ": 8524,
      "ĠëĨįêµ¬": 8525,
      "ìĿ´ìłĦ": 8526,
      "ê´ĳìĹŃìĭľ": 8527,
      "ëĤ®": 8528,
      "âĢ§": 8529,
      "ĠìŀĲê²©ì¦Ŀ": 8530,
      "ëĺĳ": 8531,
      "Ġì²ĺë°©": 8532,
      "ê¸°ìķĦì°¨": 8533,
      "Ġì¡°ìĦ¸": 8534,
      "ĠëıĮìķĦìĻĢ": 8535,
      "ER": 8536,
      "Ġê·¸ê¹Į": 8537,
      "ëĭ¹íķĺ": 8538,
      "ëŀįëĭĪëĭ¤": 8539,
      "----": 8540,
      "Ġì¤ĢìĪĺ": 8541,
      "Ġì²łìĪĺ": 8542,
      "Ġëªħë¬¸": 8543,
      "ì±Ħê¶Į": 8544,
      "ĠìķĪìĤ°": 8545,
      "ìŀĳìłĦ": 8546,
      "ĠëĳĲë£¨": 8547,
      "Ġë¹¨ëĿ¼": 8548,
      "Ġê³łì§Ģ": 8549,
      "íĻī": 8550,
      "ĠìĽ°": 8551,
      "73": 8552,
      "Ġê²½ìĺģì§Ħ": 8553,
      "Ġê¸°ëĭ¤ëł¸": 8554,
      "ìŀ¥ìĤ¬": 8555,
      "ĠìĹ°ìĿ¼": 8556,
      "Ġë©Ķëĭ¬": 8557,
      "Ġì¢ħì¢ħ": 8558,
      "ëĨĴìĿ´": 8559,
      "Ġ61": 8560,
      "ĠíĹĪëĿ½": 8561,
      "'âĢ¦": 8562,
      "ĠìĹŃìŀĦ": 8563,
      "ëıĦì²Ń": 8564,
      "Ġë§Īìļ´ëĵľ": 8565,
      "76": 8566,
      "Ġìłķìĭľ": 8567,
      "Ġëªħë°±": 8568,
      "Ġìłĳìĸ´ëĵ¤": 8569,
      "Ġíķ©ìŀĳ": 8570,
      "ãİ¡(": 8571,
      "ĠêµŃìłģ": 8572,
      "Ġë³¼ê±°ë¦¬": 8573,
      "Ġëªħëª©": 8574,
      "Ġìĸ¸ìłłê°Ģ": 8575,
      "ì´Ŀìķ¡": 8576,
      "ë§¤ìŀ¥": 8577,
      "Ġìľ¡ë°ķ": 8578,
      "Ġëĭ¨ë§Ĳ": 8579,
      "ĠëļĿ": 8580,
      "Ġì¥": 8581,
      "ĠìĹ¼ëł¤": 8582,
      "ë¶Ģì¡±": 8583,
      "ĠìķĦë§ĪëıĦ": 8584,
      "ĠíĬ¹ë³ĦíŀĪ": 8585,
      "Ġê²°ëĭ¨": 8586,
      "ìĿ¸ëıĦ": 8587,
      "ĠìĥĿìĿ¼": 8588,
      "Ġìĺ¤ëŀľë§Į": 8589,
      "ĠëĿ¼ìĿ¸ìĹħ": 8590,
      "KB": 8591,
      "ĠíķĺìľĦ": 8592,
      "íĮ¨ìħĺ": 8593,
      "ì°¨íĶ¼": 8594,
      "ì¶©ëĤ¨": 8595,
      "Ġì¶ľêµŃ": 8596,
      "Ġë¯¸ì³¤": 8597,
      "ĠìĿĺìĥģ": 8598,
      "ĠìĹ¬ìłĦ": 8599,
      "Ġê¸°ëĭ¤ëł¤": 8600,
      "Ġë°Ķê¿Ģ": 8601,
      "ĠìĤ°ìĹħëĭ¨ì§Ģ": 8602,
      "ĠìĦľìĦľíŀĪ": 8603,
      "Ġì¤ĳë¶Ģ": 8604,
      "Ġíİ¼ì³Ĳì§Ģ": 8605,
      "ë°ĳ": 8606,
      "ĠíķľëıĻìķĪ": 8607,
      "Ġê¹ĢëĮĢì¤ĳ": 8608,
      "ìĺĪìłķ": 8609,
      "ĠëĪĦë¦¬ê¾¼": 8610,
      "ĠíķľêµŃìĸ´": 8611,
      "íķĻë¶Ģ": 8612,
      "Ġë¶ĪíĻ©": 8613,
      "id": 8614,
      "ãĪľ": 8615,
      "2011": 8616,
      "Ġê¾¸ë©°": 8617,
      "Ġë¶ĢíĮ¨": 8618,
      "ĠëķĮë¡ľ": 8619,
      "ì²´ìľ¡íļĮ": 8620,
      "ë¦¬íı¬": 8621,
      "ëĭ¤ìĿ´": 8622,
      "ĠìĿĮìĽĲ": 8623,
      "ĠëĤ´ëł¤ëĨĵ": 8624,
      "ĠìĤ¬ìļ°ëĶĶ": 8625,
      "Ġìŀ¬ê³Ħ": 8626,
      "íĺĲ": 8627,
      "ĠìĨįìĨį": 8628,
      "Ġë¯¼ìĦł": 8629,
      "Ġíĺ¸ìĪĺ": 8630,
      "Ġê°ľìĭľ": 8631,
      "ë¯¸ëĶĶ": 8632,
      "Ġëĭ¬ëĿ¼ì§Ģ": 8633,
      "ĠìĨĶë¡ľ": 8634,
      "ĠìĦĿíĥĦ": 8635,
      "ë³µì§Ģë¶Ģ": 8636,
      "ì¼ĢìĬ¤íĬ¸ëĿ¼": 8637,
      "ìĭľê°ģ": 8638,
      "Ġì¡´ê²½": 8639,
      "ĠìķĦëĤĺìļ´ìĦľ": 8640,
      "Ġì°½ëĭ¨": 8641,
      "Ġìĺ¤ì§ģ": 8642,
      "ìľłìĺĪ": 8643,
      "ìį©": 8644,
      "Ġìľłê´Ģ": 8645,
      "Ġê°Ĳìĭ¸": 8646,
      "Ġê³¨ëĵľ": 8647,
      "ĠëĤ´ë¦´": 8648,
      "Ġíķľìļ°": 8649,
      "lo": 8650,
      "ëĳĲë¥´": 8651,
      "ĠìķĦëĥĲ": 8652,
      "íį¼ëŁ°ìĬ¤": 8653,
      "ĠìĬ¤íĬľëĶĶìĺ¤": 8654,
      "Ġë¬´ìĸ¸ê°Ģ": 8655,
      "Ġì»¨íħĮìĿ´ëĦĪ": 8656,
      "SNS": 8657,
      "ìĤ¬ê´Ģ": 8658,
      "Ġê°Ĳì°°": 8659,
      "ĠêµŃì±Ħ": 8660,
      "Ġëŀĺ": 8661,
      "Ġë°°ìļ´": 8662,
      "Ġìļ¸ìĤ°ìĭľ": 8663,
      "ĠíĤ¤ìĽĮëĵľ": 8664,
      "ĠìĥģìŀĦìľĦ": 8665,
      "Ġê³łë¦¬": 8666,
      "ĠíŀĲë§ģ": 8667,
      "Ġìłķë¡Ģ": 8668,
      "Ġp": 8669,
      "ĠìķĦë¦Ħëĭ¤ìĽĢ": 8670,
      "Ġì§ģë©´": 8671,
      "Ġë°Ķê¿¨": 8672,
      "Ġì°¾ìķĦìĺ¤": 8673,
      "Ġëħ¼ìĪł": 8674,
      "Ġê²Ģì¶ľ": 8675,
      "êµ¬ëł¤": 8676,
      "Ġê¹¨ëĭ«": 8677,
      "Ġêµ¬ë¦Ħ": 8678,
      "Ġìĥģìĭľ": 8679,
      "ëĮĢê¸Ī": 8680,
      "ì²Ńêµ¬": 8681,
      "Ġ74": 8682,
      "Ġê²Ģê±°": 8683,
      "ĠêµŃê²½": 8684,
      "ëģĦëŁ½": 8685,
      "Ġê¸°ìĦ±": 8686,
      "Ġê³µë¬¸": 8687,
      "Ġê³¼ìĦ¸": 8688,
      "ĠíĻķê³ł": 8689,
      "ĠíĨµìĤ°": 8690,
      "íĭ°ëĤĺ": 8691,
      "Ġê¼¬ë¦¬": 8692,
      "ĠìĨĮíĻĢ": 8693,
      "ĠëĵľëŁ¬ëĤľ": 8694,
      "Ġë¨¸ë¬´": 8695,
      "Ġê¸¸ìĿ´": 8696,
      "Ġê°ĩ": 8697,
      "íĩ´ê·¼": 8698,
      "ĠìĹĲìĸ´ì»¨": 8699,
      "Ġíļįê¸°": 8700,
      "ct": 8701,
      "ìľ¼ëł¤ëĬĶ": 8702,
      "Ġìıłë¦¬": 8703,
      "Ġtv": 8704,
      "ĠíĮĮìĿ¼": 8705,
      "Ġê³¤ëŀĢ": 8706,
      "ìĦ±ëĬ¥": 8707,
      "ì£¼ë¡ľ": 8708,
      "Ġë°Ķê¾¼": 8709,
      "ì£¼ê¸°": 8710,
      "Ġìĭłíĺ¼": 8711,
      "ï§": 8712,
      "ìļĶìĽĲ": 8713,
      "Ġëª¨ìĿĺ": 8714,
      "Ġë¶Ħëĭ´": 8715,
      "Ġìľłëıħ": 8716,
      "ì§ĢìłĲ": 8717,
      "Ġë¹Ħì¹ĺ": 8718,
      "Ġê°Ħíĺ¸ìĤ¬": 8719,
      "íĤ¥": 8720,
      "ëħ¸ìĦł": 8721,
      "ìĨĮìĭľìĹĦ": 8722,
      "íĥĢìŀĦìĬ¤": 8723,
      "ìļ©ìĹŃ": 8724,
      "ê°ľíİ¸": 8725,
      "ĠëĵľëĶĶìĸ´": 8726,
      "ĠìĦłíĸī": 8727,
      "ĠíĿ¥ë¶Ħ": 8728,
      "ìĭĿëĭ¹": 8729,
      "ĠíĨ¡íĨ¡": 8730,
      "ëĭĽ": 8731,
      "ìĭľíĤ¨ëĭ¤": 8732,
      "ê¸°ìĨĮ": 8733,
      "Ġëĵ±ìĤ°": 8734,
      "Ġê³µìŀĳ": 8735,
      "ĠìĨĮì§ĳ": 8736,
      "ĠëģĮëł¤": 8737,
      "ëłĪëĵľ": 8738,
      "Ġì§ĦìłĦ": 8739,
      "ĠíĹ¬ìĬ¤": 8740,
      "éĩ": 8741,
      "ëĤ´ë¦¬": 8742,
      "Ġë§ĮìĿ¼": 8743,
      "å±": 8744,
      "ëįĶìĬ¤": 8745,
      "ĠíĺĢ": 8746,
      "Ġëª¨ìĸĳìĥĪ": 8747,
      "Ġê¶¤": 8748,
      "Ġê³¨ëĿ¼": 8749,
      "Ġë§ĮìĦ±": 8750,
      "ĠíĨłíģ¬": 8751,
      "ĠíĻįì¤Ģíĳľ": 8752,
      "ĠìĨĮê¸Ī": 8753,
      "Ġì£¼ìĹ°": 8754,
      "EU": 8755,
      "Ġë¶ĦìĹ´": 8756,
      "Ġê³µëª¨ìłĦ": 8757,
      "Ġ88": 8758,
      "Ġf": 8759,
      "ìłľì¡°": 8760,
      "ĠëĤľëĭ¤": 8761,
      "Ġìĭ¼": 8762,
      "ĠìĿ¼ë³¸ìĿ¸": 8763,
      "Ġ\"'": 8764,
      "ĠìĽĲê°Ģ": 8765,
      "Ġëľ¯": 8766,
      "Ġë°©íķľ": 8767,
      "Ġëī´ëĶľ": 8768,
      "ĠìĿ¼ìļĶìĿ¼": 8769,
      "ìĪĺë¦¬": 8770,
      "Ġìĸĩ": 8771,
      "Ġë¬¼ëŁ¬ëĤĺ": 8772,
      "ĠìĿ¼ì¹ĺ": 8773,
      "ĠëĤłê°ľ": 8774,
      "ĠìĤ¬ëĿ¼ì§Ħ": 8775,
      "Ġìľłíļ¨": 8776,
      "ĠìĦłì°©": 8777,
      "ĠìĹĳ": 8778,
      "ĠìĿ¼ìľ¼íĤ¨": 8779,
      "Ġë¶Ģìĸĳ": 8780,
      "Ġëª°ëŀĺ": 8781,
      "ĠíĻľê¸°": 8782,
      "êµ¬ìĦ±": 8783,
      "Ġëĸ¨ìĸ´ì§Ī": 8784,
      "ì²Ńë¬¸íļĮ": 8785,
      "Ġë°©ìľĦ": 8786,
      "ê³łëıĦ": 8787,
      "ëĮĶ": 8788,
      "ĠìĦłíı¬": 8789,
      "Ġë°ĺì§Ŀ": 8790,
      "Ġë°ĿíĺĢì¡Į": 8791,
      "ëĤĺìĻĢ": 8792,
      "Ġíķ©ìĦ±": 8793,
      "ëĭµëĭĪëĭ¤": 8794,
      "ĠëĦī": 8795,
      "ĠíıŃìĹ¼": 8796,
      "Ġì¶ķìłģ": 8797,
      "ì¤ĳíķĻêµĲ": 8798,
      "Ġê°Ħìłĳ": 8799,
      "Ġë§ŀë¬¼": 8800,
      "Ġì»¤íĶĮ": 8801,
      "Ġë¶Ģì°©": 8802,
      "ĠìłĢëŁ°": 8803,
      "Ġì¶ľìŀĲ": 8804,
      "Ġìĭłì°¨": 8805,
      "ĠìķĪê²½": 8806,
      "ĠíĶĮëŀĺ": 8807,
      "ë¯¸êµ°": 8808,
      "DC": 8809,
      "Ġê°Ģê¹ĮìĽĮ": 8810,
      "ì¹¨ì²´": 8811,
      "em": 8812,
      "ëį°ìĬ¤": 8813,
      "Ġìĺ¨ìĭ¤ê°ĢìĬ¤": 8814,
      "ëĵľë¦¼": 8815,
      "ìĤ¬ìĿ¸": 8816,
      "ìĺģìĹŃ": 8817,
      "ìĹħìĨĮ": 8818,
      "Ġë¬´ìĦŃ": 8819,
      "Ġíģ¬ë£¨ì¦Ī": 8820,
      "Ġì§Ģë¶Ī": 8821,
      "Ġê·¸ë¦ĩ": 8822,
      "ĠëįĶêµ¬ëĤĺ": 8823,
      "ë§¤ëıĦ": 8824,
      "ĠëģĬìĿ´": 8825,
      "ê¸°ì¡´": 8826,
      "ë²Īì§Ģ": 8827,
      "Ġë¯¼ìłķ": 8828,
      "Ġìŀħë§Ľ": 8829,
      "íĻĶìŀ¥": 8830,
      "Ġíķ´ìŀĦ": 8831,
      "ĠìłķêµŃ": 8832,
      "Ġë·°íĭ°": 8833,
      "ìĹ¬ê¸°": 8834,
      "ĠíĬ¹ê°ķ": 8835,
      "ìłĦì²ł": 8836,
      "Ġëª¨íĦ°": 8837,
      "Ġ140": 8838,
      "ĠëıĦì¶ľ": 8839,
      "ĠëĦĪíĿ¬": 8840,
      "ĠëıĦêµ¬": 8841,
      "ëĥī": 8842,
      "Ġ8000": 8843,
      "ĠìĤ¼ìĦ±ë¬¼ìĤ°": 8844,
      "Ġì§ĪìĦľ": 8845,
      "ut": 8846,
      "ĠìĿĮë°ĺ": 8847,
      "Ġë°ľíĥģ": 8848,
      "ĠìĿ´ë¶Ħ": 8849,
      "ĠKBO": 8850,
      "Ġìļ¸ë¦¬": 8851,
      "Ġ1970": 8852,
      "Ġê³łëĮĢ": 8853,
      "ê¸į": 8854,
      "Ġê³µëĭ¨": 8855,
      "Ġíķľìĸĳ": 8856,
      "ëĿ¼ì§Ģ": 8857,
      "Ġê·¸ëĮĢ": 8858,
      "ĠìķłíĶĮë¦¬ì¼ĢìĿ´ìħĺ": 8859,
      "Ġë¹ĮëĶ©": 8860,
      "Ġê´ĳë³µ": 8861,
      "Ġì£¼ê¸°": 8862,
      "Ġëĭ¤ê°Ģê°Ģ": 8863,
      "Ġìĺ¬ë¦´": 8864,
      "Ġì¶ľìĥĿ": 8865,
      "op": 8866,
      "ê²¨ëłĪ": 8867,
      "ĠíĶĮëĿ¼ìĬ¤íĭ±": 8868,
      "Ġêµ¬ë¦¬": 8869,
      "Ġê·¹ìĭ¬": 8870,
      "ê´Ģê³ĦìŀĲ": 8871,
      "Ġë¶Īìĭł": 8872,
      "ĠìºĶ": 8873,
      "ëĤ¨ë¶ģ": 8874,
      "ĠìĺĪìĿĺ": 8875,
      "Ġë¬´ìļ©": 8876,
      "ĠëĮĢì²´ë¡ľ": 8877,
      "Ġìī´": 8878,
      "äºº": 8879,
      "Ġíĺ¸ê¸°ìĭ¬": 8880,
      "Ġì¤ĳìĭľ": 8881,
      "Ġë°ľíĮĲ": 8882,
      "ë¹¨": 8883,
      "ĠLTE": 8884,
      "ìķłìļĶ": 8885,
      "Ġê½ī": 8886,
      "ë¸ĮëĿ¼": 8887,
      "Ġ7000": 8888,
      "Ġëĭ¤íģĲ": 8889,
      "ĠìľĦëĮĢ": 8890,
      "Ġë°ķìĬ¤": 8891,
      "ĠìĥģìĽĲ": 8892,
      "íķ¨ê»ĺ": 8893,
      "Ġë²ĦëĶĶ": 8894,
      "Ġë¶ģìª½": 8895,
      "ĠëĮĢíķľíķŃê³µ": 8896,
      "ĠICT": 8897,
      "Ġìĸ´ëĸ¨ê¹Į": 8898,
      "Ġê¶ĮìľĦ": 8899,
      "ĠìĬ¤ìĽ¨ëį´": 8900,
      "Ġ78": 8901,
      "Ġë¶ĪêµĲ": 8902,
      "ĠìĿ¼ìĤ°": 8903,
      "ìĦľë¦¬": 8904,
      "ìŀĩ": 8905,
      "Ġê´Ģê±´": 8906,
      "ĠìĪŃ": 8907,
      "ĠìľĦìŀ¥": 8908,
      "ĠíķĺëıĦ": 8909,
      "Ġë¨¹ìĿ´": 8910,
      "ëŀĺê³¤": 8911,
      "ê·¸ëŁ¬ëĤĺ": 8912,
      "ĠíıŃë¡ľ": 8913,
      "94": 8914,
      "ë½": 8915,
      "Ġëĭ¬ëł¸": 8916,
      "ë§ĺ": 8917,
      "Ġì±ħìŀĦìŀĲ": 8918,
      "Ġíķ´ìĦ¤": 8919,
      "Ġê¹ĢìĦł": 8920,
      "ĠìĿ¸ë¬¸": 8921,
      "Ġë¶Ģê·¼": 8922,
      "Ġê³Ħìĭł": 8923,
      "Ġë°ĺíĻĺ": 8924,
      "ëį°ìļĶ": 8925,
      "ĠìľĦë²ķ": 8926,
      "ĠìĭłëħĦ": 8927,
      "ĠíķĺëĿ½ìĦ¸": 8928,
      "ĠìĪĺìŀ¥": 8929,
      "íĥľíĶĦ": 8930,
      "ĠíĬ¼": 8931,
      "ìĿ¼ìľ¼": 8932,
      "ìľ¼ë¡ł": 8933,
      "ë§ŀì¶¤": 8934,
      "Ġê°ĢëĿ¼ìķī": 8935,
      "Ġë¶Īíĸī": 8936,
      "Ġë¨¸ë¦¿ìĨį": 8937,
      "ìĦ¬ìľł": 8938,
      "Ġê¸°ìĪĻ": 8939,
      "Ġë¯¿ìĿĮ": 8940,
      "ĠíĶ¼ìķĦëħ¸": 8941,
      "Ġ2030": 8942,
      "Ġê¸°ìłģ": 8943,
      "ĠíĨµìŀ¥": 8944,
      "Ġthe": 8945,
      "ì°½ì¶ľ": 8946,
      "ìĭľìłĪ": 8947,
      "Ġê³µìĺģ": 8948,
      "ìľłê°Ģ": 8949,
      "Ġëª¬": 8950,
      "Ġë§¤ë¬¼": 8951,
      "Ġë¬´ëĦĪì§Ģ": 8952,
      "2009": 8953,
      "Ġë°Ķìģľ": 8954,
      "Ġíľ©ìĭ¸": 8955,
      "Ġê¹Ģìŀ¥": 8956,
      "ir": 8957,
      "ì½ĺìĦľíĬ¸": 8958,
      "íĨłì§Ģ": 8959,
      "Ġíľł": 8960,
      "ìĬ¤ì¹´": 8961,
      "Ġê±¸ì¹ľ": 8962,
      "Ġê°ĵ": 8963,
      "ìĸ´ì¹ĺ": 8964,
      "Ġìĭľë¹Ħ": 8965,
      "ìĸ´ì§Ħëĭ¤": 8966,
      "ê±¸ìĿ´": 8967,
      "Ġê¸°ìĦ¸": 8968,
      "ĠíĿ¡ìĹ°": 8969,
      "Ġê±¸ë¦´": 8970,
      "ìłķë§Ĳ": 8971,
      "ĠëĤ¯ìĦł": 8972,
      "Ġìĺ¤ëĬĺëĤł": 8973,
      "ëł¤ìĦľ": 8974,
      "Ġê¸°ìĹħìĿ¸": 8975,
      "ë®": 8976,
      "Ġê°ĦìłĪ": 8977,
      "TI": 8978,
      "Ġì£¼ë¦Ħ": 8979,
      "Ġíı¬ë¥´": 8980,
      "Ġê³¨ìŀĲ": 8981,
      "ĠíĮĮìŀ¥": 8982,
      "Ġì²Ńì¶ĺ": 8983,
      "Ġìħĭì§¸": 8984,
      "ë¶Ģì§Ħ": 8985,
      "Ġì°Ķ": 8986,
      "Ġìĺģê°Ĳ": 8987,
      "Ġ.": 8988,
      "ĠìĹ¬ë¦Ħì²ł": 8989,
      "ĠíĶ¼íķł": 8990,
      "Ġì¡°ì¢ħ": 8991,
      "ĠìĨĮë§¤": 8992,
      "Ġêµ°ìĤ°": 8993,
      "íı´ë¦¬ìĺ¤": 8994,
      "íķı": 8995,
      "ìĿ¼ë¶Ģ": 8996,
      "ĠíķĻëł¥": 8997,
      "Ġë¹Ħê·¹": 8998,
      "ê³µìŀĲ": 8999,
      "ĠìĨĮì£¼": 9000,
      "Ġìļ°ìľĦ": 9001,
      "Ġêµ¬ìłľìĹŃ": 9002,
      "Ġì»µ": 9003,
      "Ġë§ģ": 9004,
      "Ġë¹ĦìĦľê´Ģ": 9005,
      "ë²ķìķĪ": 9006,
      "Ġë¬´ìĦľìļ´": 9007,
      "ĠëįĶë¸Ķ": 9008,
      "ĠìľłìĺĪ": 9009,
      "ĠëĲľëĭ¤ë©´": 9010,
      "Ġë§Įì¡±ëıĦ": 9011,
      "ëłĪìĿ´ìĭľìķĦ": 9012,
      "ëĭ¤ìĭľíĶ¼": 9013,
      "ĠìĦ±ì¶Ķíĸī": 9014,
      "íĻľìĦ±": 9015,
      "Ġë¶Ģì¶Ķ": 9016,
      "ĠìĹĲìĿ´ìĬ¤": 9017,
      "ĠíĹĲ": 9018,
      "Ġíĺķìĥģ": 9019,
      "ĠëıĦìłĢíŀĪ": 9020,
      "ë²¤ìħĺ": 9021,
      "ĠêµĲì°¨": 9022,
      "Ġëĭ¬ëĿ¼ì§Ħ": 9023,
      "ĠíĹĮìĭł": 9024,
      "ĠìĿ¼ìľ¼ì¼°": 9025,
      "Ġë°°íĽĦ": 9026,
      "ì§ĳëĭ¨": 9027,
      "ë©ĶìĿ´": 9028,
      "ìĤ¬ìĥģ": 9029,
      "Ġëĭ¨ë°±ì§Ī": 9030,
      "Ġìĸ´ëĬĲìĥĪ": 9031,
      "ĠíĬ¸ë¡ľ": 9032,
      "ì§Ģê¸°": 9033,
      "ì£¼ìĺģ": 9034,
      "Ġëª»ì§ĢìķĬ": 9035,
      "ìļĶíĥĢ": 9036,
      "ĠëĤ¨ìķĦ": 9037,
      "ëª¨ë°ĶìĿ¼": 9038,
      "Ġëį¤": 9039,
      "Ġ79": 9040,
      "ĠìŀĦì°¨": 9041,
      "Ġë¹ĦëĮĢìľĦ": 9042,
      "Ġì¹¨ëª°": 9043,
      "Ġìŀĩëĭ¬": 9044,
      "Ġì°¨ëĿ¼ë¦¬": 9045,
      "Ġë¬ĺìĤ¬": 9046,
      "Ġ73": 9047,
      "ìĥĪë¡ľìļ´": 9048,
      "ĠëĮĢìĦ¸": 9049,
      "ìĺĪê¸Ī": 9050,
      "ĠëĮĢíķĻìĽĲ": 9051,
      "Ġíĸ¥ê¸°": 9052,
      "Ġìłľì¹ĺ": 9053,
      "Ġíİ¼ì¹ł": 9054,
      "Ġìłĳíķĺ": 9055,
      "Ġê²°ìĦ±": 9056,
      "ìĭĿê°Ħ": 9057,
      "ë¸Ķë¦¿": 9058,
      "Ġd": 9059,
      "ì»¤íĶ¼": 9060,
      "ìĭľê¸°": 9061,
[...]
